{
  "version": "1.0",
  "truncation": null,
  "padding": null,
  "added_tokens": [
    {
      "id": 0,
      "content": "[UNK]",
      "single_word": false,
      "lstrip": false,
      "rstrip": false,
      "normalized": false,
      "special": true
    },
    {
      "id": 1,
      "content": "[CLS]",
      "single_word": false,
      "lstrip": false,
      "rstrip": false,
      "normalized": false,
      "special": true
    },
    {
      "id": 2,
      "content": "[SEP]",
      "single_word": false,
      "lstrip": false,
      "rstrip": false,
      "normalized": false,
      "special": true
    },
    {
      "id": 3,
      "content": "[PAD]",
      "single_word": false,
      "lstrip": false,
      "rstrip": false,
      "normalized": false,
      "special": true
    },
    {
      "id": 4,
      "content": "[MASK]",
      "single_word": false,
      "lstrip": false,
      "rstrip": false,
      "normalized": false,
      "special": true
    }
  ],
  "normalizer": {
    "type": "BertNormalizer",
    "clean_text": true,
    "handle_chinese_chars": true,
    "strip_accents": true,
    "lowercase": true
  },
  "pre_tokenizer": {
    "type": "Whitespace"
  },
  "post_processor": {
    "type": "TemplateProcessing",
    "single": [
      {
        "SpecialToken": {
          "id": "[CLS]",
          "type_id": 0
        }
      },
      {
        "Sequence": {
          "id": "A",
          "type_id": 0
        }
      },
      {
        "SpecialToken": {
          "id": "[SEP]",
          "type_id": 0
        }
      }
    ],
    "pair": [
      {
        "SpecialToken": {
          "id": "[CLS]",
          "type_id": 0
        }
      },
      {
        "Sequence": {
          "id": "A",
          "type_id": 0
        }
      },
      {
        "SpecialToken": {
          "id": "[SEP]",
          "type_id": 0
        }
      },
      {
        "Sequence": {
          "id": "B",
          "type_id": 1
        }
      },
      {
        "SpecialToken": {
          "id": "[SEP]",
          "type_id": 1
        }
      }
    ],
    "special_tokens": {
      "[CLS]": {
        "id": "[CLS]",
        "ids": [
          1
        ],
        "tokens": [
          "[CLS]"
        ]
      },
      "[SEP]": {
        "id": "[SEP]",
        "ids": [
          2
        ],
        "tokens": [
          "[SEP]"
        ]
      }
    }
  },
  "decoder": null,
  "model": {
    "type": "BPE",
    "dropout": null,
    "unk_token": "[UNK]",
    "continuing_subword_prefix": null,
    "end_of_word_suffix": null,
    "fuse_unk": false,
    "byte_fallback": false,
    "vocab": {
      "[UNK]": 0,
      "[CLS]": 1,
      "[SEP]": 2,
      "[PAD]": 3,
      "[MASK]": 4,
      "!": 5,
      "\"": 6,
      "#": 7,
      "$": 8,
      "%": 9,
      "&": 10,
      "'": 11,
      "(": 12,
      ")": 13,
      "*": 14,
      "+": 15,
      ",": 16,
      "-": 17,
      ".": 18,
      "/": 19,
      "0": 20,
      "1": 21,
      "2": 22,
      "3": 23,
      "4": 24,
      "5": 25,
      "6": 26,
      "7": 27,
      "8": 28,
      "9": 29,
      ":": 30,
      ";": 31,
      "<": 32,
      "=": 33,
      ">": 34,
      "?": 35,
      "@": 36,
      "[": 37,
      "]": 38,
      "_": 39,
      "`": 40,
      "a": 41,
      "b": 42,
      "c": 43,
      "d": 44,
      "e": 45,
      "f": 46,
      "g": 47,
      "h": 48,
      "i": 49,
      "j": 50,
      "k": 51,
      "l": 52,
      "m": 53,
      "n": 54,
      "o": 55,
      "p": 56,
      "q": 57,
      "r": 58,
      "s": 59,
      "t": 60,
      "u": 61,
      "v": 62,
      "w": 63,
      "x": 64,
      "y": 65,
      "z": 66,
      "{": 67,
      "}": 68,
      "°": 69,
      "±": 70,
      "²": 71,
      "´": 72,
      "µ": 73,
      "·": 74,
      "¸": 75,
      "¿": 76,
      "ß": 77,
      "ø": 78,
      "ı": 79,
      "ȣ": 80,
      "σ": 81,
      "—": 82,
      "‚": 83,
      "‛": 84,
      "“": 85,
      "”": 86,
      "„": 87,
      "•": 88,
      "…": 89,
      "′": 90,
      "€": 91,
      "−": 92,
      "∗": 93,
      "◦": 94,
      "en": 95,
      "er": 96,
      "in": 97,
      "on": 98,
      "un": 99,
      "ti": 100,
      "an": 101,
      "th": 102,
      "es": 103,
      "ch": 104,
      "the": 105,
      "al": 106,
      "tion": 107,
      "it": 108,
      "re": 109,
      "or": 110,
      "der": 111,
      "ie": 112,
      "st": 113,
      "ung": 114,
      "of": 115,
      "ar": 116,
      "at": 117,
      "ation": 118,
      "and": 119,
      "is": 120,
      "und": 121,
      "em": 122,
      "ur": 123,
      "ent": 124,
      "ich": 125,
      "as": 126,
      "to": 127,
      "au": 128,
      "be": 129,
      "die": 130,
      "ing": 131,
      "el": 132,
      "ver": 133,
      "ed": 134,
      "ol": 135,
      "pr": 136,
      "om": 137,
      "ein": 138,
      "gen": 139,
      "ter": 140,
      "ber": 141,
      "den": 142,
      "zu": 143,
      "ec": 144,
      "for": 145,
      "le": 146,
      "il": 147,
      "te": 148,
      "ra": 149,
      "ge": 150,
      "nation": 151,
      "sch": 152,
      "ic": 153,
      "ten": 154,
      "de": 155,
      "am": 156,
      "res": 157,
      "00": 158,
      "si": 159,
      "pro": 160,
      "se": 161,
      "im": 162,
      "des": 163,
      "con": 164,
      "men": 165,
      "ts": 166,
      "eit": 167,
      "ab": 168,
      "um": 169,
      "mit": 170,
      "200": 171,
      "ac": 172,
      "lich": 173,
      "wi": 174,
      "auf": 175,
      "su": 176,
      "op": 177,
      "af": 178,
      "co": 179,
      "ig": 180,
      "all": 181,
      "ass": 182,
      "hr": 183,
      "ul": 184,
      "ution": 185,
      "com": 186,
      "inter": 187,
      "eral": 188,
      "di": 189,
      "so": 190,
      "national": 191,
      "ce": 192,
      "general": 193,
      "ment": 194,
      "ag": 195,
      "fur": 196,
      "pl": 197,
      "tr": 198,
      "ne": 199,
      "lung": 200,
      "von": 201,
      "ach": 202,
      "uber": 203,
      "olution": 204,
      "ut": 205,
      "us": 206,
      "resolution": 207,
      "par": 208,
      "aus": 209,
      "dem": 210,
      "bes": 211,
      "me": 212,
      "ve": 213,
      "gi": 214,
      "international": 215,
      "ad": 216,
      "gr": 217,
      "ember": 218,
      "gan": 219,
      "sich": 220,
      "sion": 221,
      "ir": 222,
      "ort": 223,
      "ement": 224,
      "ity": 225,
      "sec": 226,
      "sam": 227,
      "unter": 228,
      "ungen": 229,
      "no": 230,
      "iti": 231,
      "ma": 232,
      "with": 233,
      "its": 234,
      "tar": 235,
      "that": 236,
      "iz": 237,
      "sta": 238,
      "ate": 239,
      "ial": 240,
      "ap": 241,
      "ist": 242,
      "we": 243,
      "vel": 244,
      "19": 245,
      "port": 246,
      "coun": 247,
      "bl": 248,
      "ess": 249,
      "fr": 250,
      "organ": 251,
      "ited": 252,
      "per": 253,
      "rech": 254,
      "retar": 255,
      "isch": 256,
      "united": 257,
      "ungs": 258,
      "dass": 259,
      "fer": 260,
      "verein": 261,
      "by": 262,
      "uc": 263,
      "nations": 264,
      "str": 265,
      "ta": 266,
      "ations": 267,
      "wir": 268,
      "ah": 269,
      "regi": 270,
      "stat": 271,
      "wie": 272,
      "qu": 273,
      "pe": 274,
      "ell": 275,
      "staat": 276,
      "end": 277,
      "heit": 278,
      "tra": 279,
      "if": 280,
      "mis": 281,
      "nationen": 282,
      "kon": 283,
      "ier": 284,
      "dec": 285,
      "ges": 286,
      "vereinten": 287,
      "tig": 288,
      "go": 289,
      "vor": 290,
      "velop": 291,
      "develop": 292,
      "oll": 293,
      "ang": 294,
      "ander": 295,
      "icht": 296,
      "aff": 297,
      "id": 298,
      "zur": 299,
      "lie": 300,
      "ther": 301,
      "inc": 302,
      "form": 303,
      "ick": 304,
      "ance": 305,
      "tic": 306,
      "ex": 307,
      "up": 308,
      "dies": 309,
      "sicher": 310,
      "wer": 311,
      "dur": 312,
      "son": 313,
      "mission": 314,
      "la": 315,
      "ef": 316,
      "gra": 317,
      "beit": 318,
      "ho": 319,
      "est": 320,
      "forder": 321,
      "ies": 322,
      "ken": 323,
      "igh": 324,
      "entw": 325,
      "fu": 326,
      "tive": 327,
      "kom": 328,
      "ahr": 329,
      "lu": 330,
      "ven": 331,
      "ding": 332,
      "vom": 333,
      "das": 334,
      "po": 335,
      "uss": 336,
      "entwick": 337,
      "bei": 338,
      "hal": 339,
      "ord": 340,
      "ben": 341,
      "region": 342,
      "et": 343,
      "fin": 344,
      "hum": 345,
      "human": 346,
      "ins": 347,
      "nach": 348,
      "199": 349,
      "schaf": 350,
      "ischen": 351,
      "gram": 352,
      "program": 353,
      "wor": 354,
      "keit": 355,
      "eine": 356,
      "lo": 357,
      "durch": 358,
      "ih": 359,
      "sp": 360,
      "ern": 361,
      "entwicklung": 362,
      "states": 363,
      "ik": 364,
      "are": 365,
      "igen": 366,
      "lichen": 367,
      "iv": 368,
      "ihr": 369,
      "dr": 370,
      "hen": 371,
      "utz": 372,
      "off": 373,
      "staaten": 374,
      "development": 375,
      "nah": 376,
      "wel": 377,
      "such": 378,
      "plement": 379,
      "pf": 380,
      "sek": 381,
      "mo": 382,
      "dis": 383,
      "ill": 384,
      "schen": 385,
      "hin": 386,
      "ien": 387,
      "ion": 388,
      "their": 389,
      "arbeit": 390,
      "ant": 391,
      "nis": 392,
      "pre": 393,
      "ind": 394,
      "weit": 395,
      "zie": 396,
      "tre": 397,
      "sy": 398,
      "cil": 399,
      "secretar": 400,
      "prov": 401,
      "sowie": 402,
      "her": 403,
      "kl": 404,
      "fuhr": 405,
      "oper": 406,
      "commit": 407,
      "sicherheit": 408,
      "person": 409,
      "ib": 410,
      "geb": 411,
      "ke": 412,
      "council": 413,
      "inclu": 414,
      "vol": 415,
      "sekretar": 416,
      "pol": 417,
      "secur": 418,
      "ans": 419,
      "not": 420,
      "security": 421,
      "rat": 422,
      "zusam": 423,
      "tiv": 424,
      "ses": 425,
      "stand": 426,
      "zusammen": 427,
      "finan": 428,
      "organis": 429,
      "report": 430,
      "stem": 431,
      "ser": 432,
      "system": 433,
      "oc": 434,
      "he": 435,
      "regional": 436,
      "schaft": 437,
      "min": 438,
      "set": 439,
      "implement": 440,
      "bly": 441,
      "ak": 442,
      "assem": 443,
      "assembly": 444,
      "vern": 445,
      "sten": 446,
      "ary": 447,
      "righ": 448,
      "organiz": 449,
      "organisation": 450,
      "secretary": 451,
      "ace": 452,
      "feren": 453,
      "teil": 454,
      "maß": 455,
      "ted": 456,
      "ty": 457,
      "ze": 458,
      "werden": 459,
      "rec": 460,
      "ly": 461,
      "hmen": 462,
      "ihre": 463,
      "inform": 464,
      "govern": 465,
      "tit": 466,
      "sie": 467,
      "ities": 468,
      "samm": 469,
      "generalsekretar": 470,
      "ner": 471,
      "requ": 472,
      "sup": 473,
      "sammlung": 474,
      "countr": 475,
      "stell": 476,
      "tions": 477,
      "versammlung": 478,
      "able": 479,
      "ste": 480,
      "reg": 481,
      "als": 482,
      "frie": 483,
      "ihrer": 484,
      "sh": 485,
      "eng": 486,
      "uck": 487,
      "tim": 488,
      "hand": 489,
      "ug": 490,
      "ro": 491,
      "itat": 492,
      "sen": 493,
      "including": 494,
      "ha": 495,
      "einer": 496,
      "cial": 497,
      "ii": 498,
      "internationalen": 499,
      "nahmen": 500,
      "generalversammlung": 501,
      "wh": 502,
      "bil": 503,
      "alle": 504,
      "besch": 505,
      "other": 506,
      "ia": 507,
      "oder": 508,
      "pres": 509,
      "partic": 510,
      "ated": 511,
      "ful": 512,
      "rights": 513,
      "dar": 514,
      "ph": 515,
      "sit": 516,
      "sub": 517,
      "raf": 518,
      "kommen": 519,
      "tag": 520,
      "io": 521,
      "arm": 522,
      "ds": 523,
      "government": 524,
      "committe": 525,
      "enden": 526,
      "menschen": 527,
      "ces": 528,
      "work": 529,
      "15": 530,
      "unterst": 531,
      "under": 532,
      "kenn": 533,
      "man": 534,
      "weiter": 535,
      "),": 536,
      "gem": 537,
      "weis": 538,
      "fl": 539,
      "resp": 540,
      "zw": 541,
      "wirk": 542,
      "gew": 543,
      "committee": 544,
      "ließ": 545,
      "trag": 546,
      "frieden": 547,
      "peace": 548,
      "tin": 549,
      "ip": 550,
      "december": 551,
      "vention": 552,
      "aussch": 553,
      "liche": 554,
      "ierung": 555,
      "sat": 556,
      "ru": 557,
      "countries": 558,
      "dez": 559,
      "from": 560,
      "lander": 561,
      "afr": 562,
      "dezember": 563,
      "onder": 564,
      "ann": 565,
      "grund": 566,
      "besonder": 567,
      "fe": 568,
      "our": 569,
      "rit": 570,
      "implementation": 571,
      "sicherheits": 572,
      "fra": 573,
      "rechts": 574,
      "pu": 575,
      "bek": 576,
      "pt": 577,
      "rel": 578,
      "fre": 579,
      "da": 580,
      "operation": 581,
      "spec": 582,
      "nicht": 583,
      "ausschuss": 584,
      "rim": 585,
      "ger": 586,
      "information": 587,
      "out": 588,
      "ue": 589,
      "2002": 590,
      "sind": 591,
      "setz": 592,
      "maßnahmen": 593,
      "ament": 594,
      "ision": 595,
      "unterstutz": 596,
      "member": 597,
      "bet": 598,
      "politi": 599,
      "eff": 600,
      "session": 601,
      "contin": 602,
      "onom": 603,
      "programm": 604,
      "einen": 605,
      "2003": 606,
      "ular": 607,
      "10": 608,
      "also": 609,
      "ect": 610,
      "this": 611,
      "econom": 612,
      "2000": 613,
      "gro": 614,
      "streng": 615,
      "sist": 616,
      "publ": 617,
      "fol": 618,
      "2005": 619,
      "which": 620,
      "bo": 621,
      "erung": 622,
      "auch": 623,
      "nen": 624,
      "vie": 625,
      "20": 626,
      "part": 627,
      "conc": 628,
      "klar": 629,
      "2001": 630,
      "tung": 631,
      "support": 632,
      "acc": 633,
      "programme": 634,
      "glie": 635,
      "entwicklungs": 636,
      "ast": 637,
      "mitglie": 638,
      "ish": 639,
      "besondere": 640,
      "ko": 641,
      "kennt": 642,
      "ersuch": 643,
      "tigen": 644,
      "unf": 645,
      "gebie": 646,
      "itar": 647,
      "wirt": 648,
      "organisationen": 649,
      "sicherheitsrat": 650,
      "ziel": 651,
      "ian": 652,
      "chn": 653,
      "leg": 654,
      "ties": 655,
      "ism": 656,
      "waff": 657,
      "welt": 658,
      "2004": 659,
      "ures": 660,
      "fordert": 661,
      "friedens": 662,
      "ure": 663,
      "contr": 664,
      "gu": 665,
      "aben": 666,
      "23": 667,
      "agen": 668,
      "einsch": 669,
      "uld": 670,
      "kt": 671,
      "tagung": 672,
      "mitt": 673,
      "lage": 674,
      "star": 675,
      "ld": 676,
      "instit": 677,
      "offic": 678,
      "economic": 679,
      "volk": 680,
      "ests": 681,
      "gegen": 682,
      "erklar": 683,
      "12": 684,
      "stellen": 685,
      "particular": 686,
      "bar": 687,
      "effor": 688,
      "wur": 689,
      "tho": 690,
      "bu": 691,
      "assist": 692,
      "red": 693,
      "une": 694,
      "pri": 695,
      "insbesondere": 696,
      "uberein": 697,
      "ff": 698,
      "gn": 699,
      "mun": 700,
      "fuhrung": 701,
      "ordin": 702,
      "meet": 703,
      "13": 704,
      "abil": 705,
      "14": 706,
      "mand": 707,
      "bericht": 708,
      "ress": 709,
      "alls": 710,
      "techn": 711,
      "satz": 712,
      "ele": 713,
      "need": 714,
      "ok": 715,
      "og": 716,
      "proc": 717,
      "berich": 718,
      "mar": 719,
      "war": 720,
      "mon": 721,
      "bal": 722,
      "ult": 723,
      "han": 724,
      "kenntnis": 725,
      "special": 726,
      "zusammenarbeit": 727,
      "efforts": 728,
      "uf": 729,
      "cooperation": 730,
      "ivil": 731,
      "wo": 732,
      "ob": 733,
      "requests": 734,
      "will": 735,
      "rechte": 736,
      "dieser": 737,
      "prom": 738,
      "trans": 739,
      "rele": 740,
      "rimin": 741,
      "ersucht": 742,
      "land": 743,
      "zwischen": 744,
      "commission": 745,
      "18": 746,
      "tor": 747,
      "have": 748,
      "abl": 749,
      "ens": 750,
      "2006": 751,
      "hil": 752,
      "cour": 753,
      "55": 754,
      "organizations": 755,
      "humanitar": 756,
      "adop": 757,
      "relev": 758,
      "meeting": 759,
      "institution": 760,
      "law": 761,
      "tet": 762,
      "consi": 763,
      "present": 764,
      "add": 765,
      "conferen": 766,
      "dien": 767,
      "mitglied": 768,
      "17": 769,
      "public": 770,
      "leich": 771,
      "convention": 772,
      "wird": 773,
      "mittel": 774,
      "consider": 775,
      "appro": 776,
      "cal": 777,
      "16": 778,
      "action": 779,
      "view": 780,
      "zif": 781,
      "effec": 782,
      "meas": 783,
      "promo": 784,
      "relevant": 785,
      "gemein": 786,
      "22": 787,
      "tak": 788,
      "roug": 789,
      "uation": 790,
      "rol": 791,
      "minist": 792,
      "eines": 793,
      "concern": 794,
      "ßer": 795,
      "alt": 796,
      "tif": 797,
      "irm": 798,
      "allen": 799,
      "pos": 800,
      "ument": 801,
      "ow": 802,
      "enn": 803,
      "hang": 804,
      "zeit": 805,
      "reit": 806,
      "sol": 807,
      "bis": 808,
      "vic": 809,
      "30": 810,
      "strate": 811,
      "resolutions": 812,
      "mitgliedstaaten": 813,
      "contrib": 814,
      "uni": 815,
      "ally": 816,
      "lungen": 817,
      "fund": 818,
      "char": 819,
      "omen": 820,
      "import": 821,
      "sel": 822,
      "measures": 823,
      "agre": 824,
      "druck": 825,
      "absch": 826,
      "social": 827,
      "sonder": 828,
      "waffen": 829,
      "grup": 830,
      "entr": 831,
      "por": 832,
      "throug": 833,
      "durchfuhrung": 834,
      "into": 835,
      "further": 836,
      "vi": 837,
      "world": 838,
      "zig": 839,
      "ard": 840,
      "ating": 841,
      "finanz": 842,
      "bas": 843,
      "well": 844,
      "ubereinkommen": 845,
      "sure": 846,
      "commen": 847,
      "timm": 848,
      "nov": 849,
      "establ": 850,
      "establish": 851,
      "doll": 852,
      "dollar": 853,
      "fest": 854,
      "ain": 855,
      "those": 856,
      "ische": 857,
      "chan": 858,
      "cy": 859,
      "lear": 860,
      "parties": 861,
      "conference": 862,
      "inv": 863,
      "fass": 864,
      "lar": 865,
      "wich": 866,
      "alling": 867,
      "activ": 868,
      "assistance": 869,
      "ements": 870,
      "ende": 871,
      "eing": 872,
      "pruf": 873,
      "imm": 874,
      "jul": 875,
      "resolutionen": 876,
      "recht": 877,
      "parag": 878,
      "plan": 879,
      "organization": 880,
      "raph": 881,
      "paragraph": 882,
      "tigung": 883,
      "vertrag": 884,
      "beitra": 885,
      "br": 886,
      "women": 887,
      "ident": 888,
      "glo": 889,
      "tigkeit": 890,
      "außer": 891,
      "stel": 892,
      "respon": 893,
      "ensure": 894,
      "affirm": 895,
      "welcom": 896,
      "ong": 897,
      "one": 898,
      "continue": 899,
      "igkeit": 900,
      "voll": 901,
      "global": 902,
      "ory": 903,
      "manag": 904,
      "ide": 905,
      "eh": 906,
      "activities": 907,
      "unterstutzung": 908,
      "verb": 909,
      "inte": 910,
      "recalling": 911,
      "ige": 912,
      "afric": 913,
      "ection": 914,
      "fort": 915,
      "gung": 916,
      "nehmen": 917,
      "ferenz": 918,
      "zum": 919,
      "gewahr": 920,
      "resour": 921,
      "begr": 922,
      "integr": 923,
      "ium": 924,
      "haben": 925,
      "full": 926,
      "commun": 927,
      "tige": 928,
      "wirksam": 929,
      "mill": 930,
      "je": 931,
      "fahr": 932,
      "halten": 933,
      "pflich": 934,
      "konferenz": 935,
      "ative": 936,
      "hinweis": 937,
      "cht": 938,
      "56": 939,
      "wirtschaft": 940,
      "sho": 941,
      "handel": 942,
      "november": 943,
      "wend": 944,
      "through": 945,
      "reco": 946,
      "pen": 947,
      "58": 948,
      "gre": 949,
      "ear": 950,
      "shall": 951,
      "erklarung": 952,
      "luss": 953,
      "again": 954,
      "non": 955,
      "ble": 956,
      "kap": 957,
      "appropri": 958,
      "encour": 959,
      "level": 960,
      "soll": 961,
      "setzung": 962,
      "use": 963,
      "57": 964,
      "tain": 965,
      "mog": 966,
      "afrik": 967,
      "situation": 968,
      "treff": 969,
      "then": 970,
      "reaffirm": 971,
      "ziffer": 972,
      "ater": 973,
      "gesch": 974,
      "24": 975,
      "sche": 976,
      "ay": 977,
      "ausschusses": 978,
      "proz": 979,
      "pal": 980,
      "oh": 981,
      "soz": 982,
      "adopted": 983,
      "volker": 984,
      "fac": 985,
      "lag": 986,
      "tigt": 987,
      "prot": 988,
      "resources": 989,
      "terr": 990,
      "forderung": 991,
      "ep": 992,
      "hat": 993,
      "chil": 994,
      "regierung": 995,
      "terror": 996,
      "developing": 997,
      "iat": 998,
      "ting": 999,
      "aum": 1000,
      "ahl": 1001,
      "11": 1002,
      "accord": 1003,
      "nex": 1004,
      "strengthen": 1005,
      "ical": 1006,
      "vertrags": 1007,
      "lin": 1008,
      "schutz": 1009,
      "rahmen": 1010,
      "process": 1011,
      "ank": 1012,
      "should": 1013,
      "lichkeit": 1014,
      "internationale": 1015,
      "ied": 1016,
      "vers": 1017,
      "nung": 1018,
      "bereit": 1019,
      "bur": 1020,
      "leist": 1021,
      "stellung": 1022,
      "ication": 1023,
      "begru": 1024,
      "appropriate": 1025,
      "gebiet": 1026,
      "1999": 1027,
      "new": 1028,
      "against": 1029,
      "hel": 1030,
      "has": 1031,
      "kommission": 1032,
      "menschenrechte": 1033,
      "recommen": 1034,
      "einschließ": 1035,
      "sozial": 1036,
      "ict": 1037,
      "ides": 1038,
      "ments": 1039,
      "anderen": 1040,
      "sein": 1041,
      "territ": 1042,
      "seine": 1043,
      "empf": 1044,
      "provision": 1045,
      "financial": 1046,
      "recogn": 1047,
      "generalsekretars": 1048,
      "initi": 1049,
      "stain": 1050,
      "accordance": 1051,
      "cap": 1052,
      "sustain": 1053,
      "upon": 1054,
      "60": 1055,
      "zug": 1056,
      "til": 1057,
      "confl": 1058,
      "main": 1059,
      "calls": 1060,
      "itaten": 1061,
      "ages": 1062,
      "reas": 1063,
      "management": 1064,
      "zigsten": 1065,
      "declar": 1066,
      "25": 1067,
      "iden": 1068,
      "jahr": 1069,
      "2007": 1070,
      "sitz": 1071,
      "auen": 1072,
      "flik": 1073,
      "begruß": 1074,
      "konflik": 1075,
      "bekraf": 1076,
      "peop": 1077,
      "orr": 1078,
      "age": 1079,
      "proto": 1080,
      "ließt": 1081,
      "reich": 1082,
      ").": 1083,
      "verw": 1084,
      "annex": 1085,
      "einschließlich": 1086,
      "beton": 1087,
      "ence": 1088,
      "kin": 1089,
      "ween": 1090,
      "between": 1091,
      "see": 1092,
      "take": 1093,
      "nament": 1094,
      "verpflich": 1095,
      "ht": 1096,
      "diese": 1097,
      "led": 1098,
      "namentlich": 1099,
      "kel": 1100,
      "olog": 1101,
      "was": 1102,
      "polic": 1103,
      "recogniz": 1104,
      "ers": 1105,
      "ati": 1106,
      "wahr": 1107,
      "six": 1108,
      "humanitarian": 1109,
      "air": 1110,
      "viol": 1111,
      "crimin": 1112,
      "parte": 1113,
      "partner": 1114,
      "recommend": 1115,
      "systems": 1116,
      "declaration": 1117,
      "hilfe": 1118,
      "sept": 1119,
      "september": 1120,
      "ious": 1121,
      "außerdem": 1122,
      "59": 1123,
      "anstreng": 1124,
      "high": 1125,
      "decides": 1126,
      "group": 1127,
      "ates": 1128,
      "anstrengungen": 1129,
      "ual": 1130,
      "etz": 1131,
      "civil": 1132,
      "gang": 1133,
      "26": 1134,
      "dam": 1135,
      "press": 1136,
      "los": 1137,
      "landern": 1138,
      "effective": 1139,
      "tern": 1140,
      "stark": 1141,
      "bestimm": 1142,
      "plen": 1143,
      "21": 1144,
      "administ": 1145,
      "ampf": 1146,
      "mil": 1147,
      "servic": 1148,
      "funf": 1149,
      "frei": 1150,
      "accoun": 1151,
      "schrit": 1152,
      "ural": 1153,
      "importance": 1154,
      "standigen": 1155,
      "duc": 1156,
      "berichts": 1157,
      "fif": 1158,
      "beschließt": 1159,
      "immt": 1160,
      "order": 1161,
      "pun": 1162,
      "kunf": 1163,
      "june": 1164,
      "ere": 1165,
      "nachdruck": 1166,
      "hau": 1167,
      "pur": 1168,
      "seiner": 1169,
      "fo": 1170,
      "zustellen": 1171,
      "geben": 1172,
      "may": 1173,
      "nimmt": 1174,
      "coordin": 1175,
      "wieder": 1176,
      "keep": 1177,
      "note": 1178,
      "tives": 1179,
      "schafts": 1180,
      "treat": 1181,
      "sicherheitsrats": 1182,
      "regard": 1183,
      "ons": 1184,
      "ju": 1185,
      "issu": 1186,
      "weap": 1187,
      "tatigkeit": 1188,
      "org": 1189,
      "any": 1190,
      "ization": 1191,
      "fragen": 1192,
      "ute": 1193,
      "einkl": 1194,
      "einklang": 1195,
      "ving": 1196,
      "utung": 1197,
      "uclear": 1198,
      "mu": 1199,
      "taking": 1200,
      "eben": 1201,
      "nuclear": 1202,
      "equ": 1203,
      "som": 1204,
      "review": 1205,
      "weise": 1206,
      "wort": 1207,
      "artic": 1208,
      "hor": 1209,
      "muss": 1210,
      "bere": 1211,
      "haus": 1212,
      "gerich": 1213,
      ")]": 1214,
      "27": 1215,
      "decision": 1216,
      "made": 1217,
      "increas": 1218,
      "cent": 1219,
      "gleich": 1220,
      "account": 1221,
      "mechan": 1222,
      "within": 1223,
      "conflict": 1224,
      "nec": 1225,
      "net": 1226,
      "arti": 1227,
      "eleg": 1228,
      "29": 1229,
      "mul": 1230,
      "sive": 1231,
      "vis": 1232,
      "express": 1233,
      "aid": 1234,
      "staff": 1235,
      "achie": 1236,
      "ris": 1237,
      "parteien": 1238,
      "prozess": 1239,
      "perio": 1240,
      "sour": 1241,
      "les": 1242,
      "54": 1243,
      "provide": 1244,
      "state": 1245,
      "ateral": 1246,
      "phas": 1247,
      "lang": 1248,
      "kinder": 1249,
      "licher": 1250,
      "legen": 1251,
      "plo": 1252,
      "bild": 1253,
      "programmes": 1254,
      "diesem": 1255,
      "cing": 1256,
      "gruppe": 1257,
      "juni": 1258,
      "necess": 1259,
      "28": 1260,
      "respect": 1261,
      "rust": 1262,
      "fordern": 1263,
      "over": 1264,
      "artikel": 1265,
      "sach": 1266,
      "represent": 1267,
      "personal": 1268,
      "ihren": 1269,
      "erne": 1270,
      "sible": 1271,
      "wichtig": 1272,
      "mach": 1273,
      "ghan": 1274,
      "haupt": 1275,
      "empfeh": 1276,
      "apr": 1277,
      "sustainable": 1278,
      "april": 1279,
      "continu": 1280,
      "haushal": 1281,
      "office": 1282,
      "offen": 1283,
      "bekampf": 1284,
      "li": 1285,
      "wurde": 1286,
      "straf": 1287,
      "political": 1288,
      "strateg": 1289,
      "cen": 1290,
      "particip": 1291,
      "ability": 1292,
      "betreff": 1293,
      "ev": 1294,
      "raum": 1295,
      "regel": 1296,
      "contribution": 1297,
      "blem": 1298,
      "indi": 1299,
      "problem": 1300,
      "afghan": 1301,
      "nisse": 1302,
      "denen": 1303,
      "staatlichen": 1304,
      "koordin": 1305,
      "kann": 1306,
      "len": 1307,
      "damit": 1308,
      "aller": 1309,
      "foll": 1310,
      "follow": 1311,
      "tional": 1312,
      "ks": 1313,
      "persons": 1314,
      "ieren": 1315,
      "buil": 1316,
      "ors": 1317,
      "az": 1318,
      "sech": 1319,
      "there": 1320,
      "arr": 1321,
      "pras": 1322,
      "protection": 1323,
      "gress": 1324,
      "welcomes": 1325,
      "keeping": 1326,
      "verabsch": 1327,
      "alia": 1328,
      "amt": 1329,
      "frauen": 1330,
      "ennium": 1331,
      "official": 1332,
      "millennium": 1333,
      "provid": 1334,
      "terrorism": 1335,
      "article": 1336,
      "31": 1337,
      "handlung": 1338,
      "ship": 1339,
      "lt": 1340,
      "richt": 1341,
      "assess": 1342,
      "zusammenhang": 1343,
      "iation": 1344,
      "encourages": 1345,
      "sprech": 1346,
      "ire": 1347,
      "comp": 1348,
      "governmental": 1349,
      "arbe": 1350,
      "teilung": 1351,
      "necessary": 1352,
      "capac": 1353,
      "ign": 1354,
      "prev": 1355,
      "folgen": 1356,
      "heiten": 1357,
      "wurden": 1358,
      "sibil": 1359,
      "bem": 1360,
      "nat": 1361,
      "thor": 1362,
      "nachdrucklich": 1363,
      "essen": 1364,
      "arbeits": 1365,
      "ade": 1366,
      "peacekeeping": 1367,
      "period": 1368,
      "urges": 1369,
      "related": 1370,
      "friedenssicher": 1371,
      "legal": 1372,
      "begrußt": 1373,
      "setzen": 1374,
      "community": 1375,
      "sum": 1376,
      "role": 1377,
      "hungen": 1378,
      "dienste": 1379,
      "wach": 1380,
      "vir": 1381,
      "igung": 1382,
      "menschenrechts": 1383,
      "umsetzung": 1384,
      "author": 1385,
      "recommendations": 1386,
      "dren": 1387,
      "children": 1388,
      "anlage": 1389,
      "dge": 1390,
      "ange": 1391,
      "act": 1392,
      "princ": 1393,
      "ific": 1394,
      "tober": 1395,
      "rati": 1396,
      "konnen": 1397,
      "av": 1398,
      "come": 1399,
      "entsprech": 1400,
      "corr": 1401,
      "offent": 1402,
      "armament": 1403,
      "inner": 1404,
      "ine": 1405,
      "besser": 1406,
      "erneut": 1407,
      "july": 1408,
      "antwort": 1409,
      "ucksich": 1410,
      "iii": 1411,
      "weiterhin": 1412,
      "zivil": 1413,
      "let": 1414,
      "neu": 1415,
      "weapons": 1416,
      "berucksich": 1417,
      "ira": 1418,
      "ubereinkommens": 1419,
      "regier": 1420,
      "61": 1421,
      "arbeiten": 1422,
      "progress": 1423,
      "disarmament": 1424,
      "force": 1425,
      "empfehlungen": 1426,
      "tragen": 1427,
      "nachhal": 1428,
      "ogen": 1429,
      "tungen": 1430,
      "priv": 1431,
      "ese": 1432,
      "facil": 1433,
      "ipl": 1434,
      "year": 1435,
      "ile": 1436,
      "budge": 1437,
      "zentr": 1438,
      "ziele": 1439,
      "schritte": 1440,
      "onds": 1441,
      "ler": 1442,
      "sign": 1443,
      "umfass": 1444,
      "erforder": 1445,
      "rolle": 1446,
      "tex": 1447,
      "dial": 1448,
      "wirtschafts": 1449,
      "2008": 1450,
      "bezie": 1451,
      "bekampfung": 1452,
      "gemeinschaft": 1453,
      "ports": 1454,
      "agenda": 1455,
      "people": 1456,
      "agreement": 1457,
      "ressour": 1458,
      "sicht": 1459,
      "treaty": 1460,
      "mandat": 1461,
      "personen": 1462,
      "ressourcen": 1463,
      "them": 1464,
      "enz": 1465,
      "bau": 1466,
      "gest": 1467,
      "operations": 1468,
      "more": 1469,
      "promote": 1470,
      "krimin": 1471,
      "bemu": 1472,
      "among": 1473,
      "fuhren": 1474,
      "jus": 1475,
      "been": 1476,
      "einsatz": 1477,
      "uction": 1478,
      "ized": 1479,
      "198": 1480,
      "address": 1481,
      "jed": 1482,
      "heits": 1483,
      "aner": 1484,
      "pec": 1485,
      "zeitraum": 1486,
      "okrati": 1487,
      "educ": 1488,
      "mandate": 1489,
      "med": 1490,
      "betont": 1491,
      "here": 1492,
      "verantwort": 1493,
      "demokrati": 1494,
      "hinder": 1495,
      "geleg": 1496,
      "democ": 1497,
      "envir": 1498,
      "bezug": 1499,
      "environ": 1500,
      "trade": 1501,
      "lauf": 1502,
      "emphas": 1503,
      "fifty": 1504,
      "cies": 1505,
      "kern": 1506,
      "dialog": 1507,
      "mer": 1508,
      "friedenssicherungs": 1509,
      "building": 1510,
      "do": 1511,
      "tice": 1512,
      "besorg": 1513,
      "siehe": 1514,
      "exper": 1515,
      "satze": 1516,
      "unterstutzen": 1517,
      "fen": 1518,
      "haushalts": 1519,
      "1998": 1520,
      "africa": 1521,
      "bereich": 1522,
      "union": 1523,
      "ebene": 1524,
      "sicherzustellen": 1525,
      "education": 1526,
      "prufung": 1527,
      "tary": 1528,
      "einem": 1529,
      "text": 1530,
      "thre": 1531,
      "dep": 1532,
      "environment": 1533,
      "einschlag": 1534,
      "soc": 1535,
      "taken": 1536,
      "nor": 1537,
      "ely": 1538,
      "hol": 1539,
      "iger": 1540,
      "col": 1541,
      "services": 1542,
      "eiti": 1543,
      "punkt": 1544,
      "democra": 1545,
      "institutions": 1546,
      "held": 1547,
      "crim": 1548,
      "dollars": 1549,
      "prior": 1550,
      "behandlung": 1551,
      "beseiti": 1552,
      "jec": 1553,
      "vereinbar": 1554,
      "zune": 1555,
      "territor": 1556,
      "zunehmen": 1557,
      "leit": 1558,
      "versch": 1559,
      "capacity": 1560,
      "aktiv": 1561,
      "bit": 1562,
      "request": 1563,
      "regionalen": 1564,
      "ling": 1565,
      "prevention": 1566,
      "starken": 1567,
      "gust": 1568,
      "august": 1569,
      "fonds": 1570,
      "tial": 1571,
      "gemeinsam": 1572,
      "governments": 1573,
      "ond": 1574,
      "int": 1575,
      "sult": 1576,
      "gerichts": 1577,
      "greif": 1578,
      "members": 1579,
      "kult": 1580,
      "che": 1581,
      "verfahr": 1582,
      "ergeb": 1583,
      "verabschie": 1584,
      "sc": 1585,
      "appl": 1586,
      "iel": 1587,
      "supplement": 1588,
      "african": 1589,
      "eur": 1590,
      "instr": 1591,
      "gel": 1592,
      "aten": 1593,
      "od": 1594,
      "49": 1595,
      "anischen": 1596,
      "informationen": 1597,
      "enth": 1598,
      "prasident": 1599,
      "strategi": 1600,
      "vely": 1601,
      "fir": 1602,
      "juli": 1603,
      "50": 1604,
      "beste": 1605,
      "thir": 1606,
      "charter": 1607,
      "mig": 1608,
      "henden": 1609,
      "invit": 1610,
      "hilf": 1611,
      "istan": 1612,
      "aktions": 1613,
      "hung": 1614,
      "noting": 1615,
      "isra": 1616,
      "israel": 1617,
      "lau": 1618,
      "vertre": 1619,
      "gewahrleist": 1620,
      "aids": 1621,
      "first": 1622,
      "institutionen": 1623,
      "plenary": 1624,
      "veran": 1625,
      "mechanism": 1626,
      "notes": 1627,
      "hiv": 1628,
      "sud": 1629,
      "bildung": 1630,
      "verh": 1631,
      "gegeben": 1632,
      "ran": 1633,
      "charta": 1634,
      "verfu": 1635,
      "ize": 1636,
      "cult": 1637,
      "bt": 1638,
      "ques": 1639,
      "flu": 1640,
      "spr": 1641,
      "notwend": 1642,
      "uk": 1643,
      "basis": 1644,
      "verabschiede": 1645,
      "jan": 1646,
      "abrust": 1647,
      "posi": 1648,
      "provisions": 1649,
      "protok": 1650,
      "item": 1651,
      "isierung": 1652,
      "verpflichtungen": 1653,
      "atives": 1654,
      "vorsch": 1655,
      "republic": 1656,
      "andere": 1657,
      "kapaz": 1658,
      "prac": 1659,
      "lass": 1660,
      "ata": 1661,
      "coordination": 1662,
      "best": 1663,
      "ters": 1664,
      "record": 1665,
      "eth": 1666,
      "ommen": 1667,
      "contain": 1668,
      "chen": 1669,
      "reports": 1670,
      "instrument": 1671,
      "regierungen": 1672,
      "they": 1673,
      "rei": 1674,
      "einschlagigen": 1675,
      "armed": 1676,
      "undfunf": 1677,
      "nel": 1678,
      "jah": 1679,
      "73": 1680,
      "can": 1681,
      "ous": 1682,
      "obl": 1683,
      "prec": 1684,
      "altungs": 1685,
      "contributions": 1686,
      "president": 1687,
      "responsibil": 1688,
      "zwe": 1689,
      "schaff": 1690,
      "verwaltungs": 1691,
      "multil": 1692,
      "termin": 1693,
      "ischer": 1694,
      "discrimin": 1695,
      "igt": 1696,
      "miss": 1697,
      "weil": 1698,
      "gruppen": 1699,
      "where": 1700,
      "issues": 1701,
      "53": 1702,
      "mat": 1703,
      "personnel": 1704,
      "lichung": 1705,
      "gender": 1706,
      "country": 1707,
      "reform": 1708,
      "submit": 1709,
      "mehr": 1710,
      "ordnung": 1711,
      "publik": 1712,
      "summit": 1713,
      "ellen": 1714,
      "entit": 1715,
      "seit": 1716,
      "possible": 1717,
      "ient": 1718,
      "noch": 1719,
      "halt": 1720,
      "alten": 1721,
      "these": 1722,
      "his": 1723,
      "europ": 1724,
      "principl": 1725,
      "ack": 1726,
      "sou": 1727,
      "gewalt": 1728,
      "principles": 1729,
      "bemuhungen": 1730,
      "verwirk": 1731,
      "beschluss": 1732,
      "ierungs": 1733,
      "letz": 1734,
      "socie": 1735,
      "amer": 1736,
      "palest": 1737,
      "entitled": 1738,
      "ected": 1739,
      "abkommen": 1740,
      "reaffirming": 1741,
      "stellt": 1742,
      "einz": 1743,
      "prehen": 1744,
      "astin": 1745,
      "palastin": 1746,
      "saf": 1747,
      "anwend": 1748,
      "betr": 1749,
      "beitrag": 1750,
      "kernwaffen": 1751,
      "reiter": 1752,
      "mussen": 1753,
      "emphasiz": 1754,
      "secretariat": 1755,
      "beseitigung": 1756,
      "betreffend": 1757,
      "sex": 1758,
      "make": 1759,
      "comprehen": 1760,
      "multilateral": 1761,
      "right": 1762,
      "frage": 1763,
      "kraf": 1764,
      "nationalen": 1765,
      "oblig": 1766,
      "falls": 1767,
      "bew": 1768,
      "republik": 1769,
      "gesell": 1770,
      "del": 1771,
      "agencies": 1772,
      "records": 1773,
      "handels": 1774,
      "conf": 1775,
      "haltung": 1776,
      "fortschritte": 1777,
      "ail": 1778,
      "doc": 1779,
      "nahe": 1780,
      "ploy": 1781,
      "chap": 1782,
      "alth": 1783,
      "beitrage": 1784,
      "exist": 1785,
      "bring": 1786,
      "established": 1787,
      "levels": 1788,
      ".,": 1789,
      "dienst": 1790,
      "financing": 1791,
      "erg": 1792,
      "refu": 1793,
      "berat": 1794,
      "comprehensive": 1795,
      "fully": 1796,
      "depart": 1797,
      "wis": 1798,
      "very": 1799,
      "halb": 1800,
      "were": 1801,
      "jeweil": 1802,
      "propos": 1803,
      "els": 1804,
      "reaffirms": 1805,
      "beteil": 1806,
      "advis": 1807,
      "dessen": 1808,
      "vier": 1809,
      "ight": 1810,
      "darf": 1811,
      "starkung": 1812,
      "itation": 1813,
      "now": 1814,
      "refuge": 1815,
      "wahl": 1816,
      "status": 1817,
      "takes": 1818,
      "fun": 1819,
      "statten": 1820,
      "vorzu": 1821,
      "bewaff": 1822,
      "finanzierung": 1823,
      "48": 1824,
      "selb": 1825,
      "haf": 1826,
      "zwei": 1827,
      "wes": 1828,
      "tively": 1829,
      "1995": 1830,
      "sitzung": 1831,
      "justice": 1832,
      "jo": 1833,
      "bewaffne": 1834,
      "areas": 1835,
      "provided": 1836,
      "ga": 1837,
      "working": 1838,
      "bodies": 1839,
      "chtling": 1840,
      "anderem": 1841,
      "plans": 1842,
      "daruber": 1843,
      "pek": 1844,
      "bestimmungen": 1845,
      "abteilung": 1846,
      "concerned": 1847,
      "wen": 1848,
      "ergreif": 1849,
      "ferner": 1850,
      "fie": 1851,
      "rich": 1852,
      "gangen": 1853,
      "recognizing": 1854,
      "equal": 1855,
      "ining": 1856,
      "legt": 1857,
      "ration": 1858,
      "univers": 1859,
      "janu": 1860,
      "violence": 1861,
      "nahme": 1862,
      "arms": 1863,
      "based": 1864,
      "iert": 1865,
      "liber": 1866,
      "ced": 1867,
      "frame": 1868,
      "tors": 1869,
      "technolog": 1870,
      "einzel": 1871,
      "nutz": 1872,
      "pover": 1873,
      "zustandigen": 1874,
      "programms": 1875,
      "technical": 1876,
      "abo": 1877,
      "poverty": 1878,
      "tiven": 1879,
      "term": 1880,
      "ster": 1881,
      "verhutung": 1882,
      "zugang": 1883,
      "zahl": 1884,
      "elegen": 1885,
      "nehmend": 1886,
      "resses": 1887,
      "gaben": 1888,
      "wenn": 1889,
      "expresses": 1890,
      "imp": 1891,
      "ban": 1892,
      "invites": 1893,
      "verfahren": 1894,
      "zeich": 1895,
      "tier": 1896,
      "einricht": 1897,
      "bittet": 1898,
      "strengthening": 1899,
      "afrikanischen": 1900,
      "selbst": 1901,
      "bekraftigt": 1902,
      "crime": 1903,
      "hof": 1904,
      "imin": 1905,
      "hohen": 1906,
      "blick": 1907,
      "stan": 1908,
      "gerichtshof": 1909,
      "mal": 1910,
      "besorgnis": 1911,
      "framework": 1912,
      "schluss": 1913,
      "document": 1914,
      "ohne": 1915,
      "second": 1916,
      "cas": 1917,
      "51": 1918,
      "contained": 1919,
      "access": 1920,
      "umber": 1921,
      "prevent": 1922,
      "anerkenn": 1923,
      "addi": 1924,
      "determin": 1925,
      "auszu": 1926,
      "relig": 1927,
      "anzu": 1928,
      "transpar": 1929,
      "weitere": 1930,
      "needs": 1931,
      "itig": 1932,
      "above": 1933,
      "third": 1934,
      "field": 1935,
      "rative": 1936,
      "gesetz": 1937,
      "cr": 1938,
      "protokoll": 1939,
      "lagen": 1940,
      "tatigkeiten": 1941,
      "sm": 1942,
      "aufbau": 1943,
      "humanitaren": 1944,
      "leben": 1945,
      "administrative": 1946,
      "consideration": 1947,
      "without": 1948,
      "compl": 1949,
      "eig": 1950,
      "wards": 1951,
      "os": 1952,
      "afghanistan": 1953,
      "ital": 1954,
      "aß": 1955,
      "democratic": 1956,
      "politischen": 1957,
      "lossen": 1958,
      "33": 1959,
      "afrika": 1960,
      "trup": 1961,
      "apprec": 1962,
      "protocol": 1963,
      "include": 1964,
      "sier": 1965,
      "ihres": 1966,
      "sekretariat": 1967,
      "einzu": 1968,
      "ergreifen": 1969,
      "stabil": 1970,
      "promotion": 1971,
      "verwirklichung": 1972,
      "stresses": 1973,
      "society": 1974,
      "entwicklungslander": 1975,
      "ativen": 1976,
      "stit": 1977,
      "towards": 1978,
      "missions": 1979,
      "integration": 1980,
      "entwickel": 1981,
      "52": 1982,
      "policies": 1983,
      "important": 1984,
      "verbesser": 1985,
      "territory": 1986,
      "east": 1987,
      "gipf": 1988,
      "training": 1989,
      "woh": 1990,
      "ator": 1991,
      "auftrag": 1992,
      "atz": 1993,
      "gesellschaft": 1994,
      "pursu": 1995,
      "hinblick": 1996,
      "purpo": 1997,
      "moglich": 1998,
      "gehen": 1999,
      "discrimination": 2000,
      "goals": 2001,
      "time": 2002,
      "who": 2003,
      "tran": 2004,
      "1994": 2005,
      "dau": 2006,
      "tention": 2007,
      "betra": 2008,
      "improv": 2009,
      "commitment": 2010,
      "bin": 2011,
      "amil": 2012,
      "ausdruck": 2013,
      "handlungen": 2014,
      "mind": 2015,
      "ys": 2016,
      "dazu": 2017,
      "jen": 2018,
      "sor": 2019,
      "dieses": 2020,
      "aktivitaten": 2021,
      "genann": 2022,
      "itt": 2023,
      "wirkungen": 2024,
      "cur": 2025,
      "vo": 2026,
      "mater": 2027,
      "practic": 2028,
      "minister": 2029,
      "mitglieder": 2030,
      "health": 2031,
      "ruck": 2032,
      "context": 2033,
      "gemaß": 2034,
      "hoheits": 2035,
      "1997": 2036,
      "tend": 2037,
      "62": 2038,
      "cre": 2039,
      "produc": 2040,
      "elimin": 2041,
      "participation": 2042,
      "sixty": 2043,
      "erleich": 2044,
      "jahres": 2045,
      "berucksichtigung": 2046,
      "gabe": 2047,
      "umf": 2048,
      "bedarf": 2049,
      "fluchtling": 2050,
      "drei": 2051,
      "groß": 2052,
      "establishment": 2053,
      "eval": 2054,
      "vement": 2055,
      "itor": 2056,
      "obser": 2057,
      "appreciation": 2058,
      "ermu": 2059,
      "unab": 2060,
      "ratif": 2061,
      "criminal": 2062,
      "ulation": 2063,
      "sions": 2064,
      "post": 2065,
      "wissen": 2066,
      "famil": 2067,
      "ards": 2068,
      "verbreit": 2069,
      "department": 2070,
      "vertr": 2071,
      "welcoming": 2072,
      "vorzulegen": 2073,
      "aring": 2074,
      "four": 2075,
      "angelegen": 2076,
      "bru": 2077,
      "darauf": 2078,
      "number": 2079,
      "volun": 2080,
      "tur": 2081,
      "allgem": 2082,
      "inves": 2083,
      "wirksame": 2084,
      "exp": 2085,
      "plac": 2086,
      "neh": 2087,
      "gegebenen": 2088,
      "jenigen": 2089,
      "ents": 2090,
      "ition": 2091,
      "idi": 2092,
      "unternehmen": 2093,
      "gefuhr": 2094,
      "objec": 2095,
      "att": 2096,
      "nachhaltige": 2097,
      "transi": 2098,
      "advisory": 2099,
      "pra": 2100,
      "struc": 2101,
      "monitor": 2102,
      "enthalten": 2103,
      "gewahrleisten": 2104,
      "proced": 2105,
      "okument": 2106,
      "notwendigkeit": 2107,
      "hohe": 2108,
      "intern": 2109,
      "sal": 2110,
      "auswirkungen": 2111,
      "king": 2112,
      "consult": 2113,
      "would": 2114,
      "comb": 2115,
      "small": 2116,
      "ective": 2117,
      "standing": 2118,
      "prasidenten": 2119,
      "control": 2120,
      "arrang": 2121,
      "undfunfzigsten": 2122,
      "xx": 2123,
      "diesen": 2124,
      "hinsicht": 2125,
      "coll": 2126,
      "informations": 2127,
      "sequ": 2128,
      "cultural": 2129,
      "obligations": 2130,
      "1996": 2131,
      "olle": 2132,
      "head": 2133,
      "46": 2134,
      "drug": 2135,
      "zwec": 2136,
      "bede": 2137,
      "sig": 2138,
      "million": 2139,
      "vertragsstaaten": 2140,
      "anwendung": 2141,
      "developed": 2142,
      "missionen": 2143,
      "dabei": 2144,
      "following": 2145,
      "erziel": 2146,
      "tionen": 2147,
      "palastinens": 2148,
      "rule": 2149,
      "freed": 2150,
      "indep": 2151,
      "volkerrecht": 2152,
      "sechzigsten": 2153,
      "enhan": 2154,
      "gesund": 2155,
      "fried": 2156,
      "ved": 2157,
      "ieben": 2158,
      "freedom": 2159,
      "kriminierung": 2160,
      "prufen": 2161,
      "achtung": 2162,
      "identif": 2163,
      "ou": 2164,
      "dokument": 2165,
      "direc": 2166,
      "gestell": 2167,
      "some": 2168,
      "sem": 2169,
      "ject": 2170,
      "each": 2171,
      "uner": 2172,
      "olo": 2173,
      "stimm": 2174,
      "strop": 2175,
      "atastrop": 2176,
      "march": 2177,
      "erstatten": 2178,
      "anal": 2179,
      "fah": 2180,
      "ologi": 2181,
      "palestin": 2182,
      ");": 2183,
      "jud": 2184,
      "berichte": 2185,
      "during": 2186,
      "entsche": 2187,
      "umwelt": 2188,
      "197": 2189,
      "forms": 2190,
      "october": 2191,
      "conduc": 2192,
      "beizu": 2193,
      "bekraftigung": 2194,
      "ergebnisse": 2195,
      "sector": 2196,
      "condi": 2197,
      "groups": 2198,
      "47": 2199,
      "ienn": 2200,
      "gelegten": 2201,
      "trib": 2202,
      "genannten": 2203,
      "terrorismus": 2204,
      "wa": 2205,
      "sons": 2206,
      "ive": 2207,
      "pop": 2208,
      "staats": 2209,
      "kre": 2210,
      "child": 2211,
      "refugees": 2212,
      "self": 2213,
      "indem": 2214,
      "threat": 2215,
      "betracht": 2216,
      "avail": 2217,
      "palestinian": 2218,
      "two": 2219,
      "gehalten": 2220,
      "way": 2221,
      "wirtschaftliche": 2222,
      "ise": 2223,
      "deren": 2224,
      "dauer": 2225,
      "uberwach": 2226,
      "millenniums": 2227,
      "tro": 2228,
      "zusatz": 2229,
      "hauptabteilung": 2230,
      "koordinierung": 2231,
      "forum": 2232,
      "anz": 2233,
      "tal": 2234,
      "step": 2235,
      "material": 2236,
      "uberprufung": 2237,
      "67": 2238,
      "finanziel": 2239,
      "katastrop": 2240,
      "innerhalb": 2241,
      "power": 2242,
      "both": 2243,
      "aim": 2244,
      "daf": 2245,
      "mobil": 2246,
      "verbrech": 2247,
      "dafur": 2248,
      "refer": 2249,
      "adequ": 2250,
      "beding": 2251,
      "konflikt": 2252,
      "laub": 2253,
      "conclu": 2254,
      "arrangements": 2255,
      "lim": 2256,
      "nam": 2257,
      "agency": 2258,
      "being": 2259,
      "igten": 2260,
      "kultur": 2261,
      "budget": 2262,
      "responsibility": 2263,
      "nungs": 2264,
      "scien": 2265,
      "erw": 2266,
      "internationaler": 2267,
      "hoch": 2268,
      "gt": 2269,
      "weiten": 2270,
      "bewer": 2271,
      "existing": 2272,
      "disast": 2273,
      "vid": 2274,
      "entwicklungslandern": 2275,
      "invol": 2276,
      "gesam": 2277,
      "increase": 2278,
      "policy": 2279,
      "carr": 2280,
      "means": 2281,
      "kontr": 2282,
      "grif": 2283,
      "wahrend": 2284,
      "fru": 2285,
      "organe": 2286,
      "ierten": 2287,
      "tl": 2288,
      "erforderlichen": 2289,
      "erreich": 2290,
      "ubergang": 2291,
      "freiwill": 2292,
      "febru": 2293,
      "abrustung": 2294,
      "unden": 2295,
      "somalia": 2296,
      "oktober": 2297,
      "ially": 2298,
      "partnership": 2299,
      "rass": 2300,
      "ft": 2301,
      "gebieten": 2302,
      "additional": 2303,
      "betroffen": 2304,
      "kehr": 2305,
      "subregional": 2306,
      "oun": 2307,
      "comple": 2308,
      "kr": 2309,
      "representative": 2310,
      "ying": 2311,
      "constit": 2312,
      "ationen": 2313,
      "mitteln": 2314,
      "bedur": 2315,
      "unver": 2316,
      "prepar": 2317,
      "relating": 2318,
      "zusetzen": 2319,
      "verfol": 2320,
      "demokratischen": 2321,
      "1993": 2322,
      "territories": 2323,
      "emphasizes": 2324,
      "maj": 2325,
      "milit": 2326,
      "seines": 2327,
      "lech": 2328,
      "assessment": 2329,
      "cooper": 2330,
      "grundlage": 2331,
      "cup": 2332,
      "eden": 2333,
      "geeig": 2334,
      "ierte": 2335,
      "kapazitaten": 2336,
      "40": 2337,
      "peoples": 2338,
      "occup": 2339,
      "fall": 2340,
      "grundsatz": 2341,
      "enh": 2342,
      "icit": 2343,
      "acts": 2344,
      "formen": 2345,
      "promoting": 2346,
      "individ": 2347,
      "semin": 2348,
      "continued": 2349,
      "moglichkeit": 2350,
      "major": 2351,
      "wirtschaftlichen": 2352,
      "itare": 2353,
      "entral": 2354,
      "private": 2355,
      "solidi": 2356,
      "tribun": 2357,
      "ender": 2358,
      "humanitare": 2359,
      "ihnen": 2360,
      "while": 2361,
      "fore": 2362,
      "impact": 2363,
      "rif": 2364,
      "viel": 2365,
      "bi": 2366,
      "akti": 2367,
      "ars": 2368,
      "konsolidi": 2369,
      "contribute": 2370,
      "jeweiligen": 2371,
      "enhance": 2372,
      "traff": 2373,
      "military": 2374,
      "dring": 2375,
      "tages": 2376,
      "must": 2377,
      "approv": 2378,
      "ployment": 2379,
      "schaften": 2380,
      "bekund": 2381,
      "meetings": 2382,
      "bewus": 2383,
      "particularly": 2384,
      "gos": 2385,
      "reiterates": 2386,
      "most": 2387,
      "altung": 2388,
      "adv": 2389,
      "curr": 2390,
      "amoun": 2391,
      "gewahren": 2392,
      "funds": 2393,
      "south": 2394,
      "clo": 2395,
      "treten": 2396,
      "considered": 2397,
      "dialogue": 2398,
      "bedurf": 2399,
      "abschn": 2400,
      "ss": 2401,
      "fas": 2402,
      "sin": 2403,
      "initiative": 2404,
      "schaffung": 2405,
      "having": 2406,
      "specific": 2407,
      "sachver": 2408,
      "politische": 2409,
      "entsch": 2410,
      "uts": 2411,
      "soziale": 2412,
      "lassen": 2413,
      "func": 2414,
      "zentral": 2415,
      "ukt": 2416,
      "conditions": 2417,
      "rates": 2418,
      "qual": 2419,
      "einge": 2420,
      "conven": 2421,
      "stre": 2422,
      "heraus": 2423,
      "aufzunehmen": 2424,
      "bestand": 2425,
      "hoc": 2426,
      "zuarbeiten": 2427,
      "verlang": 2428,
      "gefahr": 2429,
      "timor": 2430,
      "energ": 2431,
      "transfer": 2432,
      "emessen": 2433,
      "nowled": 2434,
      "gegebenenfalls": 2435,
      "sprach": 2436,
      "bewusst": 2437,
      "agreed": 2438,
      "arbeitung": 2439,
      "abgehalten": 2440,
      "central": 2441,
      "fut": 2442,
      "stellend": 2443,
      "iraq": 2444,
      "strukt": 2445,
      "katastrophen": 2446,
      "future": 2447,
      "struct": 2448,
      "goti": 2449,
      "verantwortung": 2450,
      "untersuch": 2451,
      "ders": 2452,
      "plenar": 2453,
      "commissioner": 2454,
      "stu": 2455,
      "ety": 2456,
      "solid": 2457,
      "marz": 2458,
      "reicht": 2459,
      "militar": 2460,
      "metho": 2461,
      "beg": 2462,
      "negoti": 2463,
      "behor": 2464,
      "seinen": 2465,
      "angemessen": 2466,
      "sollen": 2467,
      "schul": 2468,
      "-,": 2469,
      "requi": 2470,
      "”,": 2471,
      "guid": 2472,
      "anerkennung": 2473,
      "final": 2474,
      "verschie": 2475,
      "remain": 2476,
      "violations": 2477,
      "konn": 2478,
      "adequate": 2479,
      "uring": 2480,
      "geeigne": 2481,
      "aufgaben": 2482,
      "explo": 2483,
      "ras": 2484,
      "universal": 2485,
      "feststellend": 2486,
      "gere": 2487,
      "safety": 2488,
      "monitoring": 2489,
      "available": 2490,
      "sto": 2491,
      "illicit": 2492,
      "nationaler": 2493,
      "sierra": 2494,
      "einsatze": 2495,
      "heb": 2496,
      "voluntary": 2497,
      "hungs": 2498,
      "elle": 2499,
      "list": 2500,
      "serious": 2501,
      "party": 2502,
      "stimmung": 2503,
      "challen": 2504,
      "about": 2505,
      "elec": 2506,
      "ications": 2507,
      "kosten": 2508,
      "approach": 2509,
      "besetz": 2510,
      "ai": 2511,
      "arib": 2512,
      "strategies": 2513,
      "prol": 2514,
      "anderer": 2515,
      "respective": 2516,
      "waren": 2517,
      "verbreitung": 2518,
      "uhr": 2519,
      "edenk": 2520,
      "than": 2521,
      "require": 2522,
      "ermutigt": 2523,
      "mandats": 2524,
      "when": 2525,
      "tribunal": 2526,
      "sozialen": 2527,
      "espec": 2528,
      "amount": 2529,
      "especially": 2530,
      "wissenschaft": 2531,
      "treffen": 2532,
      "europe": 2533,
      "gebiete": 2534,
      "bank": 2535,
      "cement": 2536,
      "zen": 2537,
      "hilfs": 2538,
      "prove": 2539,
      "struktur": 2540,
      "itate": 2541,
      "aud": 2542,
      "nichtstaatlichen": 2543,
      "eingedenk": 2544,
      "concerning": 2545,
      "acht": 2546,
      "practices": 2547,
      "anti": 2548,
      "intergovernmental": 2549,
      "mensch": 2550,
      "ifer": 2551,
      "disc": 2552,
      "regul": 2553,
      "erad": 2554,
      "fundament": 2555,
      "grundsatze": 2556,
      "effic": 2557,
      "prolifer": 2558,
      "recon": 2559,
      "actions": 2560,
      "anda": 2561,
      "legung": 2562,
      "44": 2563,
      "fulf": 2564,
      "steps": 2565,
      "congo": 2566,
      "agreements": 2567,
      "beauftrag": 2568,
      "assoc": 2569,
      "gestellt": 2570,
      "improve": 2571,
      "engag": 2572,
      "mechanisms": 2573,
      "bevolk": 2574,
      "bevolkerung": 2575,
      "facilitate": 2576,
      "korr": 2577,
      "bedienste": 2578,
      "outcome": 2579,
      "diesbezug": 2580,
      "many": 2581,
      "ost": 2582,
      "statement": 2583,
      "initiatives": 2584,
      "kongo": 2585,
      "proliferation": 2586,
      "verstarken": 2587,
      "beziehungs": 2588,
      "vision": 2589,
      "perform": 2590,
      "angehor": 2591,
      "betrag": 2592,
      "mai": 2593,
      "palastinensischen": 2594,
      "gemeinsamen": 2595,
      "fassung": 2596,
      "recognizes": 2597,
      "natur": 2598,
      "eigen": 2599,
      "akt": 2600,
      "joint": 2601,
      "technology": 2602,
      "providing": 2603,
      "ules": 2604,
      "strategien": 2605,
      "2009": 2606,
      "allgemeinen": 2607,
      "ubergangs": 2608,
      "fundamental": 2609,
      "ismen": 2610,
      "problems": 2611,
      "verabschiedet": 2612,
      "prakti": 2613,
      "undsechzigsten": 2614,
      "kommiss": 2615,
      "paragraphs": 2616,
      "resul": 2617,
      "trac": 2618,
      "droh": 2619,
      "series": 2620,
      "prozesses": 2621,
      "vollstand": 2622,
      "verbesserung": 2623,
      "suc": 2624,
      "fisch": 2625,
      "bekundet": 2626,
      "dif": 2627,
      "questions": 2628,
      "zusammenzuarbeiten": 2629,
      "san": 2630,
      "baren": 2631,
      "space": 2632,
      "”.": 2633,
      "bearing": 2634,
      "iban": 2635,
      "mad": 2636,
      "arab": 2637,
      "enti": 2638,
      "mechanismen": 2639,
      "stehen": 2640,
      "substan": 2641,
      "ants": 2642,
      "natural": 2643,
      "regular": 2644,
      "current": 2645,
      "lief": 2646,
      "rules": 2647,
      "beziehungsweise": 2648,
      "benef": 2649,
      "protect": 2650,
      "continuing": 2651,
      "abor": 2652,
      "decisions": 2653,
      "open": 2654,
      "initiativen": 2655,
      "real": 2656,
      "change": 2657,
      "kam": 2658,
      "yor": 2659,
      "zusammenhan": 2660,
      "don": 2661,
      "contribut": 2662,
      "york": 2663,
      "illegal": 2664,
      "commitments": 2665,
      "neuen": 2666,
      "after": 2667,
      "traffick": 2668,
      "rap": 2669,
      "reduction": 2670,
      "service": 2671,
      "cess": 2672,
      "vorlauf": 2673,
      "settl": 2674,
      "genommen": 2675,
      "eld": 2676,
      "zufuhren": 2677,
      "weg": 2678,
      "festgelegten": 2679,
      "investig": 2680,
      "verletz": 2681,
      "armut": 2682,
      "einrichtungen": 2683,
      "free": 2684,
      "territorial": 2685,
      "bedingungen": 2686,
      "unerlaub": 2687,
      "sern": 2688,
      "read": 2689,
      "dy": 2690,
      "39": 2691,
      "jeder": 2692,
      "achieve": 2693,
      "sechs": 2694,
      "meer": 2695,
      "ugt": 2696,
      "forderungen": 2697,
      "nommen": 2698,
      "versto": 2699,
      "spe": 2700,
      "onial": 2701,
      "stress": 2702,
      "cooperate": 2703,
      "atory": 2704,
      "regionaler": 2705,
      "least": 2706,
      "prod": 2707,
      "weiteren": 2708,
      "isti": 2709,
      "last": 2710,
      "pay": 2711,
      "val": 2712,
      "verbes": 2713,
      "publication": 2714,
      "dauerhaf": 2715,
      "verbessern": 2716,
      "tw": 2717,
      "displac": 2718,
      "foc": 2719,
      "63": 2720,
      "landes": 2721,
      "entwickelten": 2722,
      "legis": 2723,
      "zivilgesellschaft": 2724,
      "instruments": 2725,
      "nehm": 2726,
      "nur": 2727,
      "ensuring": 2728,
      "nr": 2729,
      "standards": 2730,
      "forces": 2731,
      "local": 2732,
      "airs": 2733,
      "adoption": 2734,
      "intoler": 2735,
      "usse": 2736,
      "gosla": 2737,
      "low": 2738,
      "court": 2739,
      "enthaltenen": 2740,
      "verur": 2741,
      "rats": 2742,
      "plenarsitzung": 2743,
      "amts": 2744,
      "bewaffneten": 2745,
      "erfol": 2746,
      "sudan": 2747,
      "urg": 2748,
      "entsprechend": 2749,
      "stra": 2750,
      "grow": 2751,
      "kunftig": 2752,
      "arbeitsgruppe": 2753,
      "had": 2754,
      "fourth": 2755,
      "trafficking": 2756,
      "keine": 2757,
      "1992": 2758,
      "gener": 2759,
      "food": 2760,
      "recent": 2761,
      "stability": 2762,
      "drogen": 2763,
      "volle": 2764,
      "angelegenheiten": 2765,
      "45": 2766,
      "combat": 2767,
      "geber": 2768,
      "bilateral": 2769,
      "ehen": 2770,
      "urel": 2771,
      "budgetary": 2772,
      "erleichtern": 2773,
      "reach": 2774,
      "manner": 2775,
      "eb": 2776,
      "leone": 2777,
      "tific": 2778,
      "pects": 2779,
      "affected": 2780,
      "geschlech": 2781,
      "ziffern": 2782,
      "umfassenden": 2783,
      "procedures": 2784,
      "bedeutung": 2785,
      "tagesordnung": 2786,
      "det": 2787,
      "lat": 2788,
      "ite": 2789,
      "used": 2790,
      "strategy": 2791,
      "relations": 2792,
      "exec": 2793,
      "sof": 2794,
      "enty": 2795,
      "question": 2796,
      "increased": 2797,
      "schwer": 2798,
      "effiz": 2799,
      "erklart": 2800,
      "stabilitat": 2801,
      "beitragen": 2802,
      "but": 2803,
      "affairs": 2804,
      "authority": 2805,
      "making": 2806,
      "technologi": 2807,
      "january": 2808,
      "entsprechenden": 2809,
      "dom": 2810,
      "matter": 2811,
      "gerichtshofs": 2812,
      "herstellung": 2813,
      "gefuhrt": 2814,
      "arding": 2815,
      "implementing": 2816,
      "quar": 2817,
      "sondertagung": 2818,
      "aspek": 2819,
      "berichter": 2820,
      "volkerrechts": 2821,
      "aspects": 2822,
      "consist": 2823,
      "pursuant": 2824,
      "berichterstat": 2825,
      "years": 2826,
      "opfer": 2827,
      "exam": 2828,
      "bedroh": 2829,
      "share": 2830,
      "victim": 2831,
      "strong": 2832,
      "ersten": 2833,
      "cost": 2834,
      "konkre": 2835,
      "verfolgung": 2836,
      "ivo": 2837,
      "beratenden": 2838,
      "internal": 2839,
      "wohl": 2840,
      "beob": 2841,
      "unabhang": 2842,
      "gangenen": 2843,
      "purposes": 2844,
      "elimination": 2845,
      "zweck": 2846,
      "section": 2847,
      "politik": 2848,
      "betroffenen": 2849,
      "prim": 2850,
      "unternommen": 2851,
      "sixth": 2852,
      "stehenden": 2853,
      "dum": 2854,
      "hn": 2855,
      "ibid": 2856,
      "income": 2857,
      "rece": 2858,
      "iben": 2859,
      "scher": 2860,
      "cept": 2861,
      "verstoß": 2862,
      "liberia": 2863,
      "specialized": 2864,
      "gipfel": 2865,
      "38": 2866,
      "bienn": 2867,
      "teur": 2868,
      "000": 2869,
      "betonend": 2870,
      "board": 2871,
      "place": 2872,
      "mt": 2873,
      "sexu": 2874,
      "peac": 2875,
      "uption": 2876,
      "americ": 2877,
      "since": 2878,
      "attention": 2879,
      "verfugung": 2880,
      "common": 2881,
      "gesamt": 2882,
      "population": 2883,
      "nissen": 2884,
      "infra": 2885,
      "religion": 2886,
      "opport": 2887,
      "hervor": 2888,
      "essential": 2889,
      "scientific": 2890,
      "zogen": 2891,
      "endence": 2892,
      "biolog": 2893,
      "twenty": 2894,
      "hilflich": 2895,
      "ves": 2896,
      "behilflich": 2897,
      "einander": 2898,
      "kommun": 2899,
      "help": 2900,
      "fifth": 2901,
      "ene": 2902,
      "signific": 2903,
      "sales": 2904,
      "opportun": 2905,
      "cote": 2906,
      "previous": 2907,
      "vorbereit": 2908,
      "centre": 2909,
      "evalu": 2910,
      "ines": 2911,
      "abzu": 2912,
      "ikation": 2913,
      "kulturel": 2914,
      "ku": 2915,
      "mut": 2916,
      "emal": 2917,
      "fach": 2918,
      "proper": 2919,
      "ismus": 2920,
      "targe": 2921,
      "bestehenden": 2922,
      "var": 2923,
      "ogra": 2924,
      "pa": 2925,
      "folge": 2926,
      "abschnitt": 2927,
      "unterzeich": 2928,
      "regarding": 2929,
      "redu": 2930,
      "konflikte": 2931,
      "deli": 2932,
      "fahigkeit": 2933,
      "sektor": 2934,
      "nuk": 2935,
      "vii": 2936,
      "poten": 2937,
      "call": 2938,
      "voraus": 2939,
      "civilian": 2940,
      "derung": 2941,
      "bildungs": 2942,
      "truppen": 2943,
      "personals": 2944,
      "appe": 2945,
      "esse": 2946,
      "mandates": 2947,
      "play": 2948,
      "programmen": 2949,
      "subject": 2950,
      "binnen": 2951,
      "referred": 2952,
      "tief": 2953,
      "breit": 2954,
      "prof": 2955,
      "gelegt": 2956,
      "kommt": 2957,
      "ansch": 2958,
      "bel": 2959,
      "challenges": 2960,
      "ihrem": 2961,
      "governing": 2962,
      "beitrags": 2963,
      "esch": 2964,
      "1991": 2965,
      "island": 2966,
      "haiti": 2967,
      "anhang": 2968,
      "riften": 2969,
      "ums": 2970,
      "hoheitsgebiet": 2971,
      "kte": 2972,
      "igsten": 2973,
      "treu": 2974,
      "representatives": 2975,
      "43": 2976,
      "indu": 2977,
      "gesamten": 2978,
      "indic": 2979,
      "increasing": 2980,
      "och": 2981,
      "result": 2982,
      "entwicklungsziele": 2983,
      "teilen": 2984,
      "konflikten": 2985,
      "light": 2986,
      "eful": 2987,
      "determination": 2988,
      "aimed": 2989,
      "ilfe": 2990,
      "nachhaltigen": 2991,
      "required": 2992,
      "design": 2993,
      "strategie": 2994,
      "behinder": 2995,
      "nern": 2996,
      "abilities": 2997,
      "ausarbeitung": 2998,
      "ersch": 2999,
      "industr": 3000,
      "plann": 3001,
      "probleme": 3002,
      "venth": 3003,
      "underlin": 3004,
      "could": 3005,
      "traum": 3006,
      "kapit": 3007,
      "offentlichen": 3008,
      "ubereinkunf": 3009,
      "sachverstandigen": 3010,
      "analy": 3011,
      "peaceful": 3012,
      "kur": 3013,
      "unterstreicht": 3014,
      "provisional": 3015,
      "administration": 3016,
      "erfull": 3017,
      "istic": 3018,
      "judic": 3019,
      "kindern": 3020,
      "sequent": 3021,
      "priority": 3022,
      "gir": 3023,
      "only": 3024,
      "vorsitz": 3025,
      "klein": 3026,
      "transition": 3027,
      "entschlossen": 3028,
      "girl": 3029,
      "tru": 3030,
      "iance": 3031,
      "indigen": 3032,
      "less": 3033,
      "point": 3034,
      "ihm": 3035,
      "umfassende": 3036,
      "umfang": 3037,
      "friedenssicherungseinsatze": 3038,
      "ios": 3039,
      "sollte": 3040,
      "hab": 3041,
      "responsible": 3042,
      "beobach": 3043,
      "ods": 3044,
      "vere": 3045,
      "burund": 3046,
      "jedoch": 3047,
      "ebd": 3048,
      "gol": 3049,
      "macht": 3050,
      "finden": 3051,
      "wirkung": 3052,
      "davon": 3053,
      "kraft": 3054,
      "behandel": 3055,
      "maintain": 3056,
      "iebenen": 3057,
      "significant": 3058,
      "uch": 3059,
      "tieth": 3060,
      "interest": 3061,
      "normen": 3062,
      "amerik": 3063,
      "uns": 3064,
      "emer": 3065,
      "hoher": 3066,
      "response": 3067,
      "machen": 3068,
      "kapazitat": 3069,
      "41": 3070,
      "januar": 3071,
      "beauftragten": 3072,
      "ina": 3073,
      "sea": 3074,
      "success": 3075,
      "tas": 3076,
      "verwaltung": 3077,
      "proposals": 3078,
      "active": 3079,
      "proje": 3080,
      "ivoire": 3081,
      "debt": 3082,
      "durchzufuhren": 3083,
      "tiveness": 3084,
      "37": 3085,
      "chair": 3086,
      "politiken": 3087,
      "objectives": 3088,
      "kal": 3089,
      "weltraum": 3090,
      "issue": 3091,
      "audit": 3092,
      "har": 3093,
      "ning": 3094,
      "lea": 3095,
      "vorschriften": 3096,
      "griffen": 3097,
      "put": 3098,
      "area": 3099,
      "folgenden": 3100,
      "fulfil": 3101,
      "consistent": 3102,
      "daten": 3103,
      "konsolidierung": 3104,
      "ness": 3105,
      "anteil": 3106,
      "krafte": 3107,
      "vul": 3108,
      "ersuchen": 3109,
      "results": 3110,
      "three": 3111,
      "sonstigen": 3112,
      "habil": 3113,
      "wirken": 3114,
      "pan": 3115,
      "unam": 3116,
      "ded": 3117,
      "nin": 3118,
      "equality": 3119,
      "vorbe": 3120,
      "abrustungs": 3121,
      "ators": 3122,
      "fuhrungs": 3123,
      "merk": 3124,
      "position": 3125,
      "bro": 3126,
      "rehabil": 3127,
      "icult": 3128,
      "authorities": 3129,
      "sorgen": 3130,
      "ausreich": 3131,
      "independence": 3132,
      "burg": 3133,
      "erwagen": 3134,
      "estim": 3135,
      "technische": 3136,
      "conferences": 3137,
      "neun": 3138,
      "fis": 3139,
      "extend": 3140,
      "ged": 3141,
      "zer": 3142,
      "soweit": 3143,
      "bereits": 3144,
      "sekretariats": 3145,
      "victims": 3146,
      "cer": 3147,
      "endent": 3148,
      "emergen": 3149,
      "joh": 3150,
      "erc": 3151,
      "zone": 3152,
      "einkommen": 3153,
      "expressing": 3154,
      "berucksichtigen": 3155,
      "zusammenhangen": 3156,
      "regionale": 3157,
      "behorden": 3158,
      "performance": 3159,
      "rea": 3160,
      "nutzung": 3161,
      "good": 3162,
      "inten": 3163,
      "vertragsparteien": 3164,
      "freiheit": 3165,
      "experts": 3166,
      "diskriminierung": 3167,
      "offiz": 3168,
      "zwischenstaatlichen": 3169,
      "conduct": 3170,
      "bot": 3171,
      "own": 3172,
      "harm": 3173,
      "retur": 3174,
      "associ": 3175,
      "zigste": 3176,
      "produk": 3177,
      "date": 3178,
      "usal": 3179,
      "welche": 3180,
      "individu": 3181,
      "fischere": 3182,
      "displaced": 3183,
      "falle": 3184,
      "jur": 3185,
      "unerlaubten": 3186,
      "uten": 3187,
      "sif": 3188,
      "verschiedenen": 3189,
      "tent": 3190,
      "zehn": 3191,
      "committed": 3192,
      "effectively": 3193,
      "standen": 3194,
      "irak": 3195,
      "occupied": 3196,
      "biennium": 3197,
      "ichten": 3198,
      "fullung": 3199,
      "vulner": 3200,
      "pare": 3201,
      "kapitel": 3202,
      "beim": 3203,
      "stressing": 3204,
      "achten": 3205,
      "sollten": 3206,
      "entscheid": 3207,
      "meeres": 3208,
      "wien": 3209,
      "prepare": 3210,
      "herr": 3211,
      "urgent": 3212,
      "undertaken": 3213,
      "approved": 3214,
      "disaster": 3215,
      "gerech": 3216,
      "gebiets": 3217,
      "zuruck": 3218,
      "konsult": 3219,
      "gegenuber": 3220,
      "line": 3221,
      "gend": 3222,
      "atis": 3223,
      "treatment": 3224,
      "agr": 3225,
      "effectiveness": 3226,
      "transparent": 3227,
      "minen": 3228,
      "betreffenden": 3229,
      "diam": 3230,
      "igendum": 3231,
      "month": 3232,
      "erkennt": 3233,
      "kontrolle": 3234,
      "eradication": 3235,
      "bediensteten": 3236,
      "dra": 3237,
      "oios": 3238,
      "aufzu": 3239,
      "going": 3240,
      "77": 3241,
      "log": 3242,
      "ference": 3243,
      "brauch": 3244,
      "rang": 3245,
      "statt": 3246,
      "abgehaltenen": 3247,
      "einheit": 3248,
      "posed": 3249,
      "early": 3250,
      "wahlen": 3251,
      "systeme": 3252,
      "experien": 3253,
      "dan": 3254,
      "insel": 3255,
      "bean": 3256,
      "ceed": 3257,
      "struction": 3258,
      "jer": 3259,
      "compe": 3260,
      "integrated": 3261,
      "ple": 3262,
      "annes": 3263,
      "invest": 3264,
      "vielf": 3265,
      "planning": 3266,
      "32": 3267,
      "eigh": 3268,
      "gehor": 3269,
      "beziehungen": 3270,
      "unabhangigkeit": 3271,
      "68": 3272,
      "various": 3273,
      "gesehen": 3274,
      "vorlaufige": 3275,
      "johannes": 3276,
      "bare": 3277,
      "truppe": 3278,
      "100": 3279,
      "neue": 3280,
      "risk": 3281,
      "beruf": 3282,
      "johannesburg": 3283,
      "prozent": 3284,
      "every": 3285,
      "cher": 3286,
      "privat": 3287,
      "anten": 3288,
      "diejenigen": 3289,
      "verpflichtung": 3290,
      "fruher": 3291,
      "kol": 3292,
      "schaffen": 3293,
      "offiziel": 3294,
      "satis": 3295,
      "usalem": 3296,
      "jerusalem": 3297,
      "care": 3298,
      "etwa": 3299,
      "stoc": 3300,
      "relief": 3301,
      "beige": 3302,
      "energy": 3303,
      "racial": 3304,
      "enable": 3305,
      "sexual": 3306,
      "drit": 3307,
      "verstark": 3308,
      "achieving": 3309,
      "safe": 3310,
      "madchen": 3311,
      "fes": 3312,
      "erho": 3313,
      "zeitig": 3314,
      "mass": 3315,
      "erfullung": 3316,
      "digen": 3317,
      "linien": 3318,
      "izing": 3319,
      "freedoms": 3320,
      "moglichkeiten": 3321,
      "erkenntnis": 3322,
      "liv": 3323,
      "structure": 3324,
      "ergriffen": 3325,
      "organen": 3326,
      "kommissars": 3327,
      "hout": 3328,
      "throughout": 3329,
      "ring": 3330,
      "migran": 3331,
      "deb": 3332,
      "tagungen": 3333,
      "tun": 3334,
      "abkommens": 3335,
      "resear": 3336,
      "ongoing": 3337,
      "portion": 3338,
      "girls": 3339,
      "research": 3340,
      "encourag": 3341,
      "herausforderungen": 3342,
      "35": 3343,
      "weapon": 3344,
      "fasst": 3345,
      "consolid": 3346,
      "buch": 3347,
      "freiheiten": 3348,
      "compliance": 3349,
      "verhandlungen": 3350,
      "ließen": 3351,
      "forsch": 3352,
      "grenz": 3353,
      "reporting": 3354,
      "demand": 3355,
      "staatliche": 3356,
      "sight": 3357,
      "administer": 3358,
      "seere": 3359,
      "verbind": 3360,
      "terung": 3361,
      "responsibilities": 3362,
      "42": 3363,
      "divers": 3364,
      "wirksamkeit": 3365,
      "ninth": 3366,
      "bill": 3367,
      "half": 3368,
      "36": 3369,
      "contrac": 3370,
      "einrichtung": 3371,
      "verhinder": 3372,
      "lege": 3373,
      "eller": 3374,
      "caus": 3375,
      "obil": 3376,
      "einhaltung": 3377,
      "mod": 3378,
      "teilt": 3379,
      "encourage": 3380,
      "long": 3381,
      "demobil": 3382,
      "lif": 3383,
      "anbetracht": 3384,
      "loc": 3385,
      "transit": 3386,
      "ethn": 3387,
      "fein": 3388,
      "operational": 3389,
      "vertreter": 3390,
      "negotiations": 3391,
      "rev": 3392,
      "wichtige": 3393,
      "oversight": 3394,
      "dire": 3395,
      "besonderen": 3396,
      "verfug": 3397,
      "europa": 3398,
      "bewirtschaft": 3399,
      "immed": 3400,
      "unit": 3401,
      "chem": 3402,
      "1967": 3403,
      "entwur": 3404,
      "ahrungs": 3405,
      "transport": 3406,
      "jung": 3407,
      "erhalten": 3408,
      "absatz": 3409,
      "moglichen": 3410,
      "submitted": 3411,
      "beizutragen": 3412,
      "understanding": 3413,
      "estic": 3414,
      "defin": 3415,
      "verbrechens": 3416,
      "bauen": 3417,
      "rank": 3418,
      "isp": 3419,
      "frau": 3420,
      "perman": 3421,
      "geneh": 3422,
      "fris": 3423,
      "cam": 3424,
      "mid": 3425,
      "tradi": 3426,
      "bringen": 3427,
      "domestic": 3428,
      "yo": 3429,
      "permanent": 3430,
      "mark": 3431,
      "krie": 3432,
      "entities": 3433,
      "langu": 3434,
      "satisf": 3435,
      "rey": 3436,
      "environmental": 3437,
      "due": 3438,
      "fair": 3439,
      "seventh": 3440,
      "gesundheits": 3441,
      "nuklear": 3442,
      "isten": 3443,
      "gerungen": 3444,
      "diversity": 3445,
      "seinem": 3446,
      "execu": 3447,
      "34": 3448,
      "ase": 3449,
      "verif": 3450,
      "ways": 3451,
      "eighth": 3452,
      "wide": 3453,
      "haushaltsfragen": 3454,
      "wenigsten": 3455,
      "fischerei": 3456,
      "counter": 3457,
      "aiad": 3458,
      "resol": 3459,
      "subsequent": 3460,
      "ians": 3461,
      "sur": 3462,
      "princip": 3463,
      "case": 3464,
      "sn": 3465,
      "sonderorganisationen": 3466,
      "nationally": 3467,
      "uations": 3468,
      "given": 3469,
      "annual": 3470,
      "requested": 3471,
      "draw": 3472,
      "kung": 3473,
      "bereitstellung": 3474,
      "matters": 3475,
      "oral": 3476,
      "monuc": 3477,
      "gipfels": 3478,
      "erheb": 3479,
      "gesetzt": 3480,
      "february": 3481,
      "draf": 3482,
      "west": 3483,
      "buro": 3484,
      "zweijahres": 3485,
      "wesen": 3486,
      "beobachter": 3487,
      "eren": 3488,
      "organized": 3489,
      "daran": 3490,
      "gericht": 3491,
      "suber": 3492,
      "key": 3493,
      "rehabilitation": 3494,
      "fish": 3495,
      "jede": 3496,
      "75": 3497,
      "police": 3498,
      "vereinbarungen": 3499,
      "bestehen": 3500,
      "bedurfnisse": 3501,
      "thema": 3502,
      "formul": 3503,
      "bosn": 3504,
      "monter": 3505,
      "staatlichkeit": 3506,
      "bewal": 3507,
      "leban": 3508,
      "uberze": 3509,
      "teten": 3510,
      "verabschiedeten": 3511,
      "liban": 3512,
      "agung": 3513,
      "sect": 3514,
      "statements": 3515,
      "darin": 3516,
      "drugs": 3517,
      "ising": 3518,
      "polize": 3519,
      "fact": 3520,
      "achievement": 3521,
      "acknowled": 3522,
      "proposed": 3523,
      "ome": 3524,
      "begin": 3525,
      "monterrey": 3526,
      "zwan": 3527,
      "2010": 3528,
      "panel": 3529,
      "hib": 3530,
      "interim": 3531,
      "gren": 3532,
      "porteur": 3533,
      "geeignete": 3534,
      "kleinwaffen": 3535,
      "my": 3536,
      "total": 3537,
      "notwen": 3538,
      "unterstutzt": 3539,
      "purpose": 3540,
      "vielfalt": 3541,
      "asia": 3542,
      "iness": 3543,
      "enhancing": 3544,
      "recru": 3545,
      "sieben": 3546,
      "prst": 3547,
      "rapporteur": 3548,
      "aria": 3549,
      "rechtsstaatlichkeit": 3550,
      "einnahmen": 3551,
      "situations": 3552,
      "partners": 3553,
      "anderungen": 3554,
      "emphasizing": 3555,
      "requirements": 3556,
      "fallen": 3557,
      "zivilpersonen": 3558,
      "gesundheit": 3559,
      "advan": 3560,
      "governance": 3561,
      "fisher": 3562,
      "dated": 3563,
      "former": 3564,
      "recalls": 3565,
      "enfor": 3566,
      "day": 3567,
      "millionen": 3568,
      "herze": 3569,
      "herzego": 3570,
      "genev": 3571,
      "agricult": 3572,
      "geneva": 3573,
      "jing": 3574,
      "partnerschaft": 3575,
      "einsatzes": 3576,
      "zweiten": 3577,
      "grundfreiheiten": 3578,
      "jects": 3579,
      "geogra": 3580,
      "dissemin": 3581,
      "ausgew": 3582,
      "worden": 3583,
      "koordinierungs": 3584,
      "consultation": 3585,
      "staatlicher": 3586,
      "großer": 3587,
      "menschenrechtskommission": 3588,
      "ply": 3589,
      "beijing": 3590,
      "destr": 3591,
      "regelmaß": 3592,
      "lusse": 3593,
      "deployment": 3594,
      "ergebnis": 3595,
      "application": 3596,
      "vorschlage": 3597,
      "kolonial": 3598,
      "ended": 3599,
      "exerc": 3600,
      "collabor": 3601,
      "uberwachung": 3602,
      "1990": 3603,
      "leisten": 3604,
      "habitat": 3605,
      "trage": 3606,
      "iency": 3607,
      "globalen": 3608,
      "greater": 3609,
      "iedung": 3610,
      "bereichen": 3611,
      "elections": 3612,
      "gul": 3613,
      "fortzusetzen": 3614,
      "verabschiedung": 3615,
      "iop": 3616,
      "icts": 3617,
      "zeiti": 3618,
      "yet": 3619,
      "lative": 3620,
      "praktiken": 3621,
      "liegen": 3622,
      "nationale": 3623,
      "ichtet": 3624,
      "ward": 3625,
      "wichtigen": 3626,
      "losung": 3627,
      "bleiben": 3628,
      "diesbezuglichen": 3629,
      "tis": 3630,
      "orig": 3631,
      "akte": 3632,
      "observ": 3633,
      "74": 3634,
      "fruheren": 3635,
      "feder": 3636,
      "aden": 3637,
      "evaluation": 3638,
      "besetzten": 3639,
      "done": 3640,
      "wirksamen": 3641,
      "malaria": 3642,
      "ession": 3643,
      "tron": 3644,
      "better": 3645,
      "burundi": 3646,
      "team": 3647,
      "data": 3648,
      "decade": 3649,
      "ences": 3650,
      "fluchtlinge": 3651,
      "ganz": 3652,
      "endis": 3653,
      "carib": 3654,
      "rechen": 3655,
      "caribbean": 3656,
      "accept": 3657,
      "gigen": 3658,
      "rassendis": 3659,
      "ency": 3660,
      "lead": 3661,
      "ath": 3662,
      "wert": 3663,
      "rassendiskriminierung": 3664,
      "conn": 3665,
      "growth": 3666,
      "wiederaufbau": 3667,
      "awaren": 3668,
      "cris": 3669,
      "stoff": 3670,
      "economies": 3671,
      "awareness": 3672,
      "before": 3673,
      "irc": 3674,
      "satisfaction": 3675,
      "vereinbarten": 3676,
      "settlement": 3677,
      "just": 3678,
      "origin": 3679,
      "toler": 3680,
      "transitional": 3681,
      "bewusstsein": 3682,
      "konferenzen": 3683,
      "jahren": 3684,
      "circ": 3685,
      "deleg": 3686,
      "parts": 3687,
      "weltfriedens": 3688,
      "bia": 3689,
      "internationally": 3690,
      "chapter": 3691,
      "allow": 3692,
      "weite": 3693,
      "cases": 3694,
      "quarters": 3695,
      "associated": 3696,
      "prohib": 3697,
      "gleichstellung": 3698,
      "condem": 3699,
      "direct": 3700,
      "assessed": 3701,
      "fisheries": 3702,
      "96": 3703,
      "las": 3704,
      "engagement": 3705,
      "verletzungen": 3706,
      "konsultationen": 3707,
      "ton": 3708,
      "unser": 3709,
      "solche": 3710,
      "conflicts": 3711,
      "prosec": 3712,
      "funk": 3713,
      "return": 3714,
      "plom": 3715,
      "ross": 3716,
      "sk": 3717,
      "diplom": 3718,
      "februar": 3719,
      "tat": 3720,
      "entlichen": 3721,
      "sichts": 3722,
      "vorgesehen": 3723,
      "addressing": 3724,
      "terms": 3725,
      "destruction": 3726,
      "connection": 3727,
      "actors": 3728,
      "interesse": 3729,
      "friedenskonsolidierung": 3730,
      "rac": 3731,
      "beschaff": 3732,
      "teile": 3733,
      "independent": 3734,
      "vollen": 3735,
      "headquarters": 3736,
      "aran": 3737,
      "ciliation": 3738,
      "improving": 3739,
      "ausge": 3740,
      "offentlichkeit": 3741,
      "besorgt": 3742,
      "rw": 3743,
      "orien": 3744,
      "regeln": 3745,
      "clear": 3746,
      "gun": 3747,
      "verbrechen": 3748,
      "darfur": 3749,
      "found": 3750,
      "ausbildung": 3751,
      "erzielt": 3752,
      "kris": 3753,
      "app": 3754,
      "timely": 3755,
      "assessments": 3756,
      "notwendig": 3757,
      "troop": 3758,
      "alter": 3759,
      "immun": 3760,
      "idence": 3761,
      "ziehen": 3762,
      "educational": 3763,
      "bewirtschaftung": 3764,
      "koso": 3765,
      "receiv": 3766,
      "reference": 3767,
      "strategic": 3768,
      "beteiligung": 3769,
      "production": 3770,
      "fluchtlings": 3771,
      "tatig": 3772,
      "lebens": 3773,
      "grundsatzen": 3774,
      "uung": 3775,
      "erforderlich": 3776,
      "90": 3777,
      "verstand": 3778,
      "genugt": 3779,
      "berech": 3780,
      "chts": 3781,
      "bewertung": 3782,
      "ings": 3783,
      "elines": 3784,
      "equip": 3785,
      "delay": 3786,
      "grundlegen": 3787,
      "entwurf": 3788,
      "projects": 3789,
      "beiden": 3790,
      "close": 3791,
      "primary": 3792,
      "tiz": 3793,
      "consultations": 3794,
      "facilities": 3795,
      "exploitation": 3796,
      "executive": 3797,
      "sehr": 3798,
      "pflege": 3799,
      "ffic": 3800,
      "haushalt": 3801,
      "kosovo": 3802,
      "stil": 3803,
      "scal": 3804,
      "verring": 3805,
      "missbrauch": 3806,
      "criti": 3807,
      "regulations": 3808,
      "itable": 3809,
      "erklarungen": 3810,
      "konnte": 3811,
      "genugtuung": 3812,
      "liefer": 3813,
      "property": 3814,
      "individuals": 3815,
      "dritten": 3816,
      "sweise": 3817,
      "altern": 3818,
      "sovere": 3819,
      "focus": 3820,
      "sovereign": 3821,
      "bald": 3822,
      "beil": 3823,
      "schlussfol": 3824,
      "finanzielle": 3825,
      "ehemal": 3826,
      "nutzen": 3827,
      "emergency": 3828,
      "ret": 3829,
      "tenance": 3830,
      "neg": 3831,
      "give": 3832,
      "communication": 3833,
      "maintenance": 3834,
      "merksam": 3835,
      "radi": 3836,
      "aufmerksam": 3837,
      "beilage": 3838,
      "aust": 3839,
      "einglie": 3840,
      "konflikts": 3841,
      "ily": 3842,
      "stechn": 3843,
      "beschaf": 3844,
      "views": 3845,
      "funding": 3846,
      "participate": 3847,
      "zusatzliche": 3848,
      "weisen": 3849,
      "processes": 3850,
      "ware": 3851,
      "plane": 3852,
      "migration": 3853,
      "entscheiden": 3854,
      "life": 3855,
      "democracy": 3856,
      "bezogen": 3857,
      "actively": 3858,
      "feld": 3859,
      "aufsichts": 3860,
      "abschluss": 3861,
      "applic": 3862,
      "solution": 3863,
      "seiti": 3864,
      "same": 3865,
      "friedenssicherungsmissionen": 3866,
      "signed": 3867,
      "aktionsprogramms": 3868,
      "employment": 3869,
      "mittlung": 3870,
      "opportunities": 3871,
      "armuts": 3872,
      "recruit": 3873,
      "gunsten": 3874,
      "isieren": 3875,
      "para": 3876,
      "beschlusse": 3877,
      "crimes": 3878,
      "erit": 3879,
      "untersch": 3880,
      "tification": 3881,
      "ziehung": 3882,
      "starkt": 3883,
      "demokratie": 3884,
      "draft": 3885,
      "erreichung": 3886,
      "ausgewogen": 3887,
      "70": 3888,
      "buros": 3889,
      "großen": 3890,
      "vorrang": 3891,
      "tem": 3892,
      "viii": 3893,
      "tens": 3894,
      "marine": 3895,
      "undfunfzigste": 3896,
      "heads": 3897,
      "schreit": 3898,
      "ot": 3899,
      "dest": 3900,
      "amtes": 3901,
      "ones": 3902,
      "erfahr": 3903,
      "befried": 3904,
      "schutzen": 3905,
      "beif": 3906,
      "ingesch": 3907,
      "alles": 3908,
      "uneingesch": 3909,
      "integrity": 3910,
      "discus": 3911,
      "kade": 3912,
      "ore": 3913,
      "verbot": 3914,
      "gewahrung": 3915,
      "effizient": 3916,
      "xen": 3917,
      "unif": 3918,
      "appoint": 3919,
      "wachst": 3920,
      "freiwillige": 3921,
      "restr": 3922,
      "harmon": 3923,
      "stande": 3924,
      "78": 3925,
      "innov": 3926,
      "ked": 3927,
      "guidelines": 3928,
      "fak": 3929,
      "wurd": 3930,
      "wider": 3931,
      "host": 3932,
      "finanziellen": 3933,
      "seerechts": 3934,
      "spek": 3935,
      "urement": 3936,
      "konnten": 3937,
      "civilians": 3938,
      "konkrete": 3939,
      "organs": 3940,
      "vertriebenen": 3941,
      "vollstandig": 3942,
      "web": 3943,
      "multi": 3944,
      "dienstes": 3945,
      "ausch": 3946,
      "foreign": 3947,
      "gut": 3948,
      "ausbe": 3949,
      "dle": 3950,
      "undzwan": 3951,
      "enter": 3952,
      "ateg": 3953,
      "functions": 3954,
      "critical": 3955,
      "endor": 3956,
      "lation": 3957,
      "derar": 3958,
      "five": 3959,
      "liches": 3960,
      "cover": 3961,
      "presse": 3962,
      "middle": 3963,
      "pat": 3964,
      "beteiligten": 3965,
      "befriedigung": 3966,
      "sul": 3967,
      "technologies": 3968,
      "reduce": 3969,
      "palestine": 3970,
      "function": 3971,
      "abgabe": 3972,
      "verstarkt": 3973,
      "bilden": 3974,
      "leistungen": 3975,
      "ready": 3976,
      "lam": 3977,
      "alitat": 3978,
      "sonderberichterstat": 3979,
      "zweijahreszeitraum": 3980,
      "scale": 3981,
      "bene": 3982,
      "water": 3983,
      "until": 3984,
      "beisp": 3985,
      "maßgeb": 3986,
      "achieved": 3987,
      "facilitat": 3988,
      "befasst": 3989,
      "moder": 3990,
      "atic": 3991,
      "dekade": 3992,
      "coher": 3993,
      "substantive": 3994,
      "weisung": 3995,
      "multilateralen": 3996,
      "aber": 3997,
      "def": 3998,
      "consequ": 3999,
      "needed": 4000,
      "98": 4001,
      "enen": 4002,
      "ikations": 4003,
      "vertragsstaat": 4004,
      "reconstruction": 4005,
      "ausbeutung": 4006,
      "via": 4007,
      "forty": 4008,
      "positive": 4009,
      "richtung": 4010,
      "conclusions": 4011,
      "asser": 4012,
      "ordnungs": 4013,
      "bestimmung": 4014,
      "dank": 4015,
      "imen": 4016,
      "bekraftigen": 4017,
      "refl": 4018,
      "capacities": 4019,
      "disasters": 4020,
      "pravention": 4021,
      "great": 4022,
      "erfullen": 4023,
      "krieg": 4024,
      "eten": 4025,
      "bewill": 4026,
      "yu": 4027,
      "1973": 4028,
      "darstellt": 4029,
      "offices": 4030,
      "loss": 4031,
      "thereon": 4032,
      "gemeinsame": 4033,
      "erzielten": 4034,
      "verhindern": 4035,
      "freien": 4036,
      "erklarend": 4037,
      "sessions": 4038,
      "protokolls": 4039,
      "vertrau": 4040,
      "angelegenheit": 4041,
      "enhanced": 4042,
      "kontroll": 4043,
      "ging": 4044,
      "tiert": 4045,
      "america": 4046,
      "zuber": 4047,
      "cor": 4048,
      "wiedereinglie": 4049,
      "investment": 4050,
      "eritrea": 4051,
      "forward": 4052,
      "iate": 4053,
      "kor": 4054,
      "institute": 4055,
      "procurement": 4056,
      "immer": 4057,
      "efficient": 4058,
      "ermach": 4059,
      "ope": 4060,
      "souveran": 4061,
      "distr": 4062,
      "efficiency": 4063,
      "yugosla": 4064,
      "antrag": 4065,
      "side": 4066,
      "dimen": 4067,
      "rechtspflege": 4068,
      "schulden": 4069,
      "contributing": 4070,
      "profession": 4071,
      "tungs": 4072,
      "proceed": 4073,
      "abuse": 4074,
      "mine": 4075,
      "donor": 4076,
      "months": 4077,
      "dah": 4078,
      "zukommt": 4079,
      "tete": 4080,
      "indigenous": 4081,
      "equipment": 4082,
      "statis": 4083,
      "sixtieth": 4084,
      "behandeln": 4085,
      "basic": 4086,
      "gab": 4087,
      "rate": 4088,
      "rene": 4089,
      "enjo": 4090,
      "toge": 4091,
      "supporting": 4092,
      "constitution": 4093,
      "ubereinkunfte": 4094,
      "schlussfolgerungen": 4095,
      "knowled": 4096,
      "arch": 4097,
      "zielen": 4098,
      "mechanismus": 4099,
      "knowledge": 4100,
      "mee": 4101,
      "entschlossenheit": 4102,
      "racism": 4103,
      "division": 4104,
      "rustungs": 4105,
      "reconciliation": 4106,
      "veranlag": 4107,
      "exercise": 4108,
      "ior": 4109,
      "pic": 4110,
      "inf": 4111,
      "ichts": 4112,
      "notwendigen": 4113,
      "pac": 4114,
      "sus": 4115,
      "aufmerksamkeit": 4116,
      "interne": 4117,
      "ending": 4118,
      "objective": 4119,
      "regelungen": 4120,
      "cep": 4121,
      "fortschrit": 4122,
      "freiwilligen": 4123,
      "weltgipfels": 4124,
      "laufenden": 4125,
      "64": 4126,
      "reduc": 4127,
      "selbstregierung": 4128,
      "regierungs": 4129,
      "beispiel": 4130,
      "overall": 4131,
      "sprachen": 4132,
      "geschlechter": 4133,
      "verstoße": 4134,
      "subereinkommen": 4135,
      "wege": 4136,
      "vorhand": 4137,
      "laut": 4138,
      "consequences": 4139,
      "vinc": 4140,
      "tiger": 4141,
      "stream": 4142,
      "angemessene": 4143,
      "69": 4144,
      "phys": 4145,
      "sigkeit": 4146,
      "comes": 4147,
      "commends": 4148,
      "hend": 4149,
      "documents": 4150,
      "erinner": 4151,
      "zustand": 4152,
      "expressed": 4153,
      "folgende": 4154,
      "conventions": 4155,
      "sorge": 4156,
      "soh": 4157,
      "stabe": 4158,
      "planung": 4159,
      "ebenen": 4160,
      "ministerial": 4161,
      "renew": 4162,
      "together": 4163,
      "101": 4164,
      "phase": 4165,
      "sau": 4166,
      "selves": 4167,
      "terrorist": 4168,
      "jugend": 4169,
      "aufnahme": 4170,
      "elect": 4171,
      "verk": 4172,
      "frem": 4173,
      "sonderbeauftragten": 4174,
      "european": 4175,
      "movement": 4176,
      "ansatz": 4177,
      "ubereinstimmung": 4178,
      "austausch": 4179,
      "osten": 4180,
      "moglichst": 4181,
      "trust": 4182,
      "aussoh": 4183,
      "herbeif": 4184,
      "verbunden": 4185,
      "reiben": 4186,
      "aspekte": 4187,
      "herbeifuhr": 4188,
      "kommenden": 4189,
      "effects": 4190,
      "logistic": 4191,
      "grenzuber": 4192,
      "regelung": 4193,
      "namen": 4194,
      "verstarkte": 4195,
      "xim": 4196,
      "uberprufen": 4197,
      "art": 4198,
      "geschlossen": 4199,
      "konze": 4200,
      "geschaf": 4201,
      "sachen": 4202,
      "priorities": 4203,
      "culture": 4204,
      "jahre": 4205,
      "enjoy": 4206,
      "gleichzeitig": 4207,
      "differ": 4208,
      "rwanda": 4209,
      "lab": 4210,
      "berichten": 4211,
      "karib": 4212,
      "wid": 4213,
      "internet": 4214,
      "extre": 4215,
      "developments": 4216,
      "gerichtet": 4217,
      "besteht": 4218,
      "deta": 4219,
      "entwicklungsh": 4220,
      "sanc": 4221,
      "schif": 4222,
      "stake": 4223,
      "nichtverbreitung": 4224,
      "technischen": 4225,
      "partnerships": 4226,
      "pacific": 4227,
      "effort": 4228,
      "intolerance": 4229,
      "endorses": 4230,
      "verhang": 4231,
      "bewaltigung": 4232,
      "embar": 4233,
      "ausland": 4234,
      "mogen": 4235,
      "erreichen": 4236,
      "potential": 4237,
      "hip": 4238,
      "lokal": 4239,
      "underlines": 4240,
      "erinnert": 4241,
      "iplin": 4242,
      "sachverstandigengruppe": 4243,
      "living": 4244,
      "kindes": 4245,
      "vereinbarung": 4246,
      "esetz": 4247,
      "nehmung": 4248,
      "ief": 4249,
      "convinc": 4250,
      "gibt": 4251,
      "involved": 4252,
      "oce": 4253,
      "wasser": 4254,
      "angol": 4255,
      "stelle": 4256,
      "afrikas": 4257,
      "verfahrens": 4258,
      "enforcement": 4259,
      "labour": 4260,
      "ns": 4261,
      "fassungen": 4262,
      "equitable": 4263,
      "accountability": 4264,
      "nehmer": 4265,
      "outer": 4266,
      "rechnung": 4267,
      "dic": 4268,
      "unity": 4269,
      "protocols": 4270,
      "spezif": 4271,
      "wobei": 4272,
      "72": 4273,
      "perspec": 4274,
      "findet": 4275,
      "durchfuhrungs": 4276,
      "syr": 4277,
      "wortlaut": 4278,
      "igkeiten": 4279,
      "legislative": 4280,
      "kommunikation": 4281,
      "gige": 4282,
      "regim": 4283,
      "consen": 4284,
      "beilegung": 4285,
      "guter": 4286,
      "israeli": 4287,
      "intoleranz": 4288,
      "bedrohung": 4289,
      "66": 4290,
      "corruption": 4291,
      "applicable": 4292,
      "stakehol": 4293,
      "convinced": 4294,
      "ually": 4295,
      "erhohen": 4296,
      "xxi": 4297,
      "different": 4298,
      "reintegration": 4299,
      "entgegen": 4300,
      "internally": 4301,
      "nie": 4302,
      "transparency": 4303,
      "familien": 4304,
      "vice": 4305,
      "administering": 4306,
      "lebanon": 4307,
      "vermogen": 4308,
      "allem": 4309,
      "rechnungs": 4310,
      "ground": 4311,
      "institutional": 4312,
      "stim": 4313,
      "build": 4314,
      "haltlich": 4315,
      "sanctions": 4316,
      "already": 4317,
      "ational": 4318,
      "umzusetzen": 4319,
      "goal": 4320,
      "principle": 4321,
      "rechenschafts": 4322,
      "herbeifuhrung": 4323,
      "border": 4324,
      "darum": 4325,
      "wahrnehmung": 4326,
      "leitlinien": 4327,
      "vation": 4328,
      "andid": 4329,
      "apportion": 4330,
      "solcher": 4331,
      "wahrung": 4332,
      "confidence": 4333,
      "staatsangehor": 4334,
      "preparation": 4335,
      "rassismus": 4336,
      "217": 4337,
      "acy": 4338,
      "encouraging": 4339,
      "consensus": 4340,
      "tie": 4341,
      "kohar": 4342,
      "barkeit": 4343,
      "establishing": 4344,
      "islam": 4345,
      "seiten": 4346,
      "prepared": 4347,
      "poin": 4348,
      "klim": 4349,
      "network": 4350,
      "hilfswer": 4351,
      "hinaus": 4352,
      "balance": 4353,
      "wirksamer": 4354,
      "rasch": 4355,
      "crisis": 4356,
      "behalf": 4357,
      "sektors": 4358,
      "bus": 4359,
      "enten": 4360,
      "uberpruf": 4361,
      "auszuarbeiten": 4362,
      "observer": 4363,
      "vollstandige": 4364,
      "sank": 4365,
      "base": 4366,
      "tokel": 4367,
      "schreiben": 4368,
      "gebra": 4369,
      "begrußung": 4370,
      "benefit": 4371,
      "broad": 4372,
      "opho": 4373,
      "family": 4374,
      "individual": 4375,
      "estimated": 4376,
      "collaboration": 4377,
      "derzeit": 4378,
      "regions": 4379,
      "weiterverfolgung": 4380,
      "veroffent": 4381,
      "imposed": 4382,
      "practice": 4383,
      "buchstabe": 4384,
      "yugoslavia": 4385,
      "element": 4386,
      "minder": 4387,
      "einger": 4388,
      "versorg": 4389,
      "erten": 4390,
      "theit": 4391,
      "interessen": 4392,
      "staates": 4393,
      "sozialrats": 4394,
      "legislation": 4395,
      "anger": 4396,
      "procedure": 4397,
      "vereinte": 4398,
      "zentrum": 4399,
      "kriminalitat": 4400,
      "direkt": 4401,
      "durchgefuhrt": 4402,
      "annt": 4403,
      "personalabgabe": 4404,
      "fron": 4405,
      "maȣ": 4406,
      "sely": 4407,
      "jugosla": 4408,
      "veranst": 4409,
      "analys": 4410,
      "threats": 4411,
      "undzwanzigsten": 4412,
      "eror": 4413,
      "beein": 4414,
      "sources": 4415,
      "kind": 4416,
      "befur": 4417,
      "beno": 4418,
      "kunftigen": 4419,
      "methoden": 4420,
      "entwicklungshilfe": 4421,
      "ara": 4422,
      "verkehr": 4423,
      "endgul": 4424,
      "respond": 4425,
      "certain": 4426,
      "polizei": 4427,
      "grant": 4428,
      "darunter": 4429,
      "ruhe": 4430,
      "eingesetz": 4431,
      "anerkann": 4432,
      "ub": 4433,
      "kunft": 4434,
      "bewaffneter": 4435,
      "stances": 4436,
      "jugoslawien": 4437,
      "gefordert": 4438,
      "deep": 4439,
      "judicial": 4440,
      "angen": 4441,
      "humanitarer": 4442,
      "pru": 4443,
      "effect": 4444,
      "task": 4445,
      "grenzuberschreit": 4446,
      "65": 4447,
      "rein": 4448,
      "einzur": 4449,
      "stands": 4450,
      "peacebuilding": 4451,
      "vulnerable": 4452,
      "spie": 4453,
      "ali": 4454,
      "statute": 4455,
      "leste": 4456,
      "nature": 4457,
      "untersuchung": 4458,
      "versorgungs": 4459,
      "79": 4460,
      "schem": 4461,
      "volkes": 4462,
      "fek": 4463,
      "combating": 4464,
      "ends": 4465,
      "situationen": 4466,
      "offentliche": 4467,
      "kulturellen": 4468,
      "habe": 4469,
      "fassen": 4470,
      "lichkeiten": 4471,
      "nar": 4472,
      "stor": 4473,
      "mitgliedern": 4474,
      "clim": 4475,
      "lack": 4476,
      "auffassung": 4477,
      "how": 4478,
      "ugung": 4479,
      "undertake": 4480,
      "gewahrleistung": 4481,
      "preventing": 4482,
      "complete": 4483,
      "subregionalen": 4484,
      "eliminate": 4485,
      "ert": 4486,
      "bege": 4487,
      "valu": 4488,
      "feind": 4489,
      "pass": 4490,
      "schad": 4491,
      "entwicklungen": 4492,
      "xenopho": 4493,
      "dauerhaften": 4494,
      "verbrechensverhutung": 4495,
      "wiederherstellung": 4496,
      "investi": 4497,
      "appeals": 4498,
      "sitzungen": 4499,
      "rankt": 4500,
      "preparatory": 4501,
      "973": 4502,
      "plat": 4503,
      "vernicht": 4504,
      "langfris": 4505,
      "prioritaten": 4506,
      "agriculture": 4507,
      "exchange": 4508,
      "diver": 4509,
      "globalization": 4510,
      "offer": 4511,
      "absicht": 4512,
      "met": 4513,
      "poor": 4514,
      "sovereignty": 4515,
      "befurwor": 4516,
      "1949": 4517,
      "refugee": 4518,
      "distrib": 4519,
      "ziff": 4520,
      "transparenz": 4521,
      "climate": 4522,
      "300": 4523,
      "bevolker": 4524,
      "rete": 4525,
      "zukommen": 4526,
      "mitwirkung": 4527,
      "pflicht": 4528,
      "partnerschaften": 4529,
      "wachsen": 4530,
      "letter": 4531,
      "bemuhen": 4532,
      "donors": 4533,
      "business": 4534,
      "soon": 4535,
      "laim": 4536,
      "ible": 4537,
      "235": 4538,
      "continues": 4539,
      "amtssitz": 4540,
      "exten": 4541,
      "concrete": 4542,
      "coordinated": 4543,
      "create": 4544,
      "gipfeltreffen": 4545,
      "util": 4546,
      "unterrich": 4547,
      "registr": 4548,
      "compon": 4549,
      "beweg": 4550,
      "deut": 4551,
      "affect": 4552,
      "outstanding": 4553,
      "ruckkehr": 4554,
      "expand": 4555,
      "geschlechts": 4556,
      "neten": 4557,
      "minim": 4558,
      "dankt": 4559,
      "mex": 4560,
      "disabilities": 4561,
      "identify": 4562,
      "aspekten": 4563,
      "tort": 4564,
      "economy": 4565,
      "finanzinstitutionen": 4566,
      "wun": 4567,
      "sowohl": 4568,
      "using": 4569,
      "entry": 4570,
      "dringend": 4571,
      "kampf": 4572,
      "intention": 4573,
      "regionen": 4574,
      "torture": 4575,
      "intensif": 4576,
      "fremden": 4577,
      ")/": 4578,
      "cau": 4579,
      "wever": 4580,
      "however": 4581,
      "communities": 4582,
      "souveranitat": 4583,
      "chr": 4584,
      "elf": 4585,
      "acting": 4586,
      "strup": 4587,
      "greich": 4588,
      "bereitzustellen": 4589,
      "anerkennend": 4590,
      "unabhan": 4591,
      "erfolgreich": 4592,
      "76": 4593,
      "seized": 4594,
      "opin": 4595,
      "media": 4596,
      "leitung": 4597,
      "sehen": 4598,
      "quality": 4599,
      "pakt": 4600,
      "atom": 4601,
      "ganzen": 4602,
      "riter": 4603,
      "ields": 4604,
      "treuhand": 4605,
      "stakeholders": 4606,
      "strongly": 4607,
      "costs": 4608,
      "opinion": 4609,
      "kleinen": 4610,
      "recommendation": 4611,
      "punish": 4612,
      "legi": 4613,
      "daher": 4614,
      "vermogens": 4615,
      "fremdenfeind": 4616,
      "find": 4617,
      "folter": 4618,
      "richter": 4619,
      "study": 4620,
      "juris": 4621,
      "coming": 4622,
      "trach": 4623,
      "geschatz": 4624,
      "centres": 4625,
      "electoral": 4626,
      "einige": 4627,
      "zeu": 4628,
      "leichten": 4629,
      "languages": 4630,
      "anhalten": 4631,
      "medien": 4632,
      "realization": 4633,
      "vorsitzenden": 4634,
      "modal": 4635,
      "2015": 4636,
      "guine": 4637,
      "volks": 4638,
      "geht": 4639,
      "que": 4640,
      "solchen": 4641,
      "recovery": 4642,
      "gefuhrten": 4643,
      "hauptausschuss": 4644,
      "posts": 4645,
      "benefits": 4646,
      "once": 4647,
      "deploy": 4648,
      "implemented": 4649,
      "rechtsvorschriften": 4650,
      "ined": 4651,
      "uty": 4652,
      "sustained": 4653,
      "funften": 4654,
      "zierung": 4655,
      "iran": 4656,
      "ifft": 4657,
      "gebo": 4658,
      "seek": 4659,
      "improved": 4660,
      "infrastruktur": 4661,
      "recruitment": 4662,
      "nair": 4663,
      "forth": 4664,
      "ided": 4665,
      "spater": 4666,
      "considering": 4667,
      "partei": 4668,
      "verurteilt": 4669,
      "zah": 4670,
      "verfolgen": 4671,
      "sets": 4672,
      "weist": 4673,
      "verantwortlich": 4674,
      "dialogs": 4675,
      "bour": 4676,
      "become": 4677,
      "krank": 4678,
      "genehmig": 4679,
      "jurisdic": 4680,
      "verhalten": 4681,
      "vollem": 4682,
      "norm": 4683,
      "analysis": 4684,
      "cross": 4685,
      "mity": 4686,
      "180": 4687,
      "holding": 4688,
      "offizielles": 4689,
      "du": 4690,
      "anges": 4691,
      "ernahrungs": 4692,
      "gross": 4693,
      "corrigendum": 4694,
      "neuer": 4695,
      "practical": 4696,
      "formity": 4697,
      "coven": 4698,
      "teilungen": 4699,
      "you": 4700,
      "ausbildungs": 4701,
      "obi": 4702,
      "nairobi": 4703,
      "rema": 4704,
      "communications": 4705,
      "delivery": 4706,
      "remains": 4707,
      "gele": 4708,
      "ley": 4709,
      "endors": 4710,
      "durban": 4711,
      "utzt": 4712,
      "materials": 4713,
      "zusammenhangenden": 4714,
      "dee": 4715,
      "utes": 4716,
      "80": 4717,
      "sah": 4718,
      "maxim": 4719,
      "ugh": 4720,
      "gewahrt": 4721,
      "begrenz": 4722,
      "friedliche": 4723,
      "150": 4724,
      "recognized": 4725,
      "hinsichtlich": 4726,
      "bevolkerungs": 4727,
      "sied": 4728,
      "director": 4729,
      "liste": 4730,
      "clu": 4731,
      "nahen": 4732,
      "verpflichtet": 4733,
      "xenophobia": 4734,
      "konsen": 4735,
      "iko": 4736,
      "hold": 4737,
      "atoren": 4738,
      "amerika": 4739,
      "derjenigen": 4740,
      "abstimmung": 4741,
      "infrastructure": 4742,
      "auffassungen": 4743,
      "noth": 4744,
      "entwicklungsfinanzierung": 4745,
      "fruh": 4746,
      "starker": 4747,
      "doha": 4748,
      "protokolle": 4749,
      "successful": 4750,
      "sever": 4751,
      "innerstaatlichen": 4752,
      "sprache": 4753,
      "ethnic": 4754,
      "guinea": 4755,
      "71": 4756,
      "strafgerichtshofs": 4757,
      "beeintrach": 4758,
      "istans": 4759,
      "goods": 4760,
      "zentren": 4761,
      "reiterating": 4762,
      "unversehr": 4763,
      "wenden": 4764,
      "erwar": 4765,
      "geor": 4766,
      "lieȣ": 4767,
      "themselves": 4768,
      "fle": 4769,
      "rechnen": 4770,
      "naturkatastrophen": 4771,
      "aktual": 4772,
      "mein": 4773,
      "obligation": 4774,
      "methods": 4775,
      ".”": 4776,
      "fields": 4777,
      "undvier": 4778,
      "subsi": 4779,
      "itigkeit": 4780,
      "beschaffungs": 4781,
      "tical": 4782,
      "efs": 4783,
      "losigkeit": 4784,
      "iae": 4785,
      "avour": 4786,
      "88": 4787,
      "consul": 4788,
      "statigkeit": 4789,
      "redit": 4790,
      "laws": 4791,
      "burger": 4792,
      "past": 4793,
      "reser": 4794,
      "ahn": 4795,
      "aussohnung": 4796,
      "back": 4797,
      "ienz": 4798,
      "__": 4799,
      "flow": 4800,
      "uer": 4801,
      "tischen": 4802,
      "tool": 4803,
      "elements": 4804,
      "technologien": 4805,
      "cause": 4806,
      "unversehrtheit": 4807,
      "aties": 4808,
      "treaties": 4809,
      "eln": 4810,
      "mitarbeit": 4811,
      "kontext": 4812,
      "judges": 4813,
      "energie": 4814,
      "verstandnis": 4815,
      "korper": 4816,
      "getr": 4817,
      "conformity": 4818,
      "acks": 4819,
      "spricht": 4820,
      "comply": 4821,
      "bie": 4822,
      "unch": 4823,
      "angs": 4824,
      "institutionellen": 4825,
      "nuklearen": 4826,
      "vertrauens": 4827,
      "geschatzten": 4828,
      "ermoglichen": 4829,
      "angrif": 4830,
      "ording": 4831,
      "vollzug": 4832,
      "addition": 4833,
      "religious": 4834,
      "ßen": 4835,
      "radio": 4836,
      "dimension": 4837,
      "\",": 4838,
      "ete": 4839,
      "vienn": 4840,
      "ately": 4841,
      "ente": 4842,
      "aufgabe": 4843,
      "perspek": 4844,
      "adopt": 4845,
      "erforderliche": 4846,
      "vienna": 4847,
      "vorgelegt": 4848,
      "insgesamt": 4849,
      "darstellen": 4850,
      "geschaff": 4851,
      "ously": 4852,
      "analyse": 4853,
      "zehnten": 4854,
      "erfahrungen": 4855,
      "geschafts": 4856,
      "xv": 4857,
      "fug": 4858,
      "entwickeln": 4859,
      "project": 4860,
      "decided": 4861,
      "site": 4862,
      "globalisierung": 4863,
      "letzten": 4864,
      "aufsichtsdienste": 4865,
      "acces": 4866,
      "neigh": 4867,
      "ausgaben": 4868,
      "relationship": 4869,
      "terroristi": 4870,
      "carry": 4871,
      "herrschaft": 4872,
      "tise": 4873,
      "transform": 4874,
      "apply": 4875,
      "effizienz": 4876,
      "immediate": 4877,
      "kim": 4878,
      "ausub": 4879,
      "uberweisung": 4880,
      "tigten": 4881,
      "large": 4882,
      "einsatzen": 4883,
      "sofern": 4884,
      "ases": 4885,
      "tour": 4886,
      "theref": 4887,
      "einzelstaatlichen": 4888,
      "korruption": 4889,
      "projekte": 4890,
      "logistics": 4891,
      "treuhandfonds": 4892,
      "therefore": 4893,
      "kapazitats": 4894,
      "wander": 4895,
      "amend": 4896,
      "sibility": 4897,
      "neighbour": 4898,
      "cho": 4899,
      "besonders": 4900,
      "leiter": 4901,
      "diamanten": 4902,
      "demands": 4903,
      "reak": 4904,
      "versuch": 4905,
      "thereto": 4906,
      "justiz": 4907,
      "suffic": 4908,
      "complement": 4909,
      "mone": 4910,
      "entrichtet": 4911,
      "lasslich": 4912,
      "streitigkeit": 4913,
      "migranten": 4914,
      "dissemination": 4915,
      "circum": 4916,
      "perspective": 4917,
      "tokelau": 4918,
      "andels": 4919,
      "einigen": 4920,
      "acter": 4921,
      "sonderausschuss": 4922,
      "solidar": 4923,
      "unmittel": 4924,
      "stad": 4925,
      "tenden": 4926,
      "launch": 4927,
      "ordentlichen": 4928,
      "authorized": 4929,
      "normal": 4930,
      "kimber": 4931,
      "ungsfreiheit": 4932,
      "sozialrat": 4933,
      "wiedereingliederung": 4934,
      "beispielsweise": 4935,
      "enjoyment": 4936,
      "geleist": 4937,
      "georgi": 4938,
      "erhohung": 4939,
      "ungsmaßnahmen": 4940,
      "gute": 4941,
      "wichtigkeit": 4942,
      "klima": 4943,
      "500": 4944,
      "extra": 4945,
      "regionalorganisationen": 4946,
      "fremdenfeindlichkeit": 4947,
      "kimberley": 4948,
      "rechten": 4949,
      "konom": 4950,
      "gebill": 4951,
      "iraks": 4952,
      "anische": 4953,
      "neunundfunfzigsten": 4954,
      "quellen": 4955,
      "transnational": 4956,
      "officials": 4957,
      "wesent": 4958,
      "mainstream": 4959,
      "gleichberech": 4960,
      "mutual": 4961,
      "chairman": 4962,
      "informed": 4963,
      "eku": 4964,
      "werte": 4965,
      "gegenwar": 4966,
      "entsprechende": 4967,
      "vorschlag": 4968,
      "verlangern": 4969,
      "indis": 4970,
      "stattung": 4971,
      "extern": 4972,
      "carried": 4973,
      "okonom": 4974,
      "psy": 4975,
      "another": 4976,
      "ats": 4977,
      "exeku": 4978,
      "globale": 4979,
      "expertise": 4980,
      "allgemeine": 4981,
      "constitute": 4982,
      "sonderberichterstatter": 4983,
      "bund": 4984,
      "far": 4985,
      "pris": 4986,
      "paris": 4987,
      "settlements": 4988,
      "93": 4989,
      "97": 4990,
      "edon": 4991,
      "deal": 4992,
      "sonderausschusses": 4993,
      "unternommenen": 4994,
      "taliban": 4995,
      "behinderungen": 4996,
      "addressed": 4997,
      "sufficient": 4998,
      "erhaltung": 4999,
      "ole": 5000,
      "religio": 5001,
      "dringlich": 5002,
      "negative": 5003,
      "alloc": 5004,
      "ulations": 5005,
      "outcomes": 5006,
      "according": 5007,
      "verabschiedete": 5008,
      "biological": 5009,
      "workers": 5010,
      "einzelnen": 5011,
      "angola": 5012,
      "bedurfnissen": 5013,
      "entwaff": 5014,
      "ventive": 5015,
      "presence": 5016,
      "mogliche": 5017,
      "causes": 5018,
      "akteure": 5019,
      "appointment": 5020,
      "brut": 5021,
      "improvement": 5022,
      "uberwachungs": 5023,
      "circumstances": 5024,
      "petr": 5025,
      "technologie": 5026,
      "sth": 5027,
      "wegen": 5028,
      "dise": 5029,
      "empfehlung": 5030,
      "aktionsplan": 5031,
      "inclusive": 5032,
      "sharing": 5033,
      "enthalt": 5034,
      "erleichterung": 5035,
      "behorde": 5036,
      "exekutiv": 5037,
      "whe": 5038,
      "asien": 5039,
      "abhaltung": 5040,
      "versor": 5041,
      "experience": 5042,
      "table": 5043,
      "cham": 5044,
      "schutzes": 5045,
      "reichen": 5046,
      "unterschied": 5047,
      "kriegs": 5048,
      "whether": 5049,
      "kennen": 5050,
      "flag": 5051,
      "seite": 5052,
      "fung": 5053,
      "ix": 5054,
      "weltweiten": 5055,
      "mariti": 5056,
      "attacks": 5057,
      "schefs": 5058,
      "wies": 5059,
      "capital": 5060,
      "bewaffnete": 5061,
      "exped": 5062,
      "ologien": 5063,
      "verlangt": 5064,
      "him": 5065,
      "acqu": 5066,
      "umfeld": 5067,
      "zwecke": 5068,
      "received": 5069,
      "external": 5070,
      "hon": 5071,
      "erk": 5072,
      "ably": 5073,
      "troduc": 5074,
      "pazif": 5075,
      "verhangten": 5076,
      "resum": 5077,
      "involvement": 5078,
      "pil": 5079,
      "introduc": 5080,
      "tioned": 5081,
      "betreu": 5082,
      "obst": 5083,
      "avo": 5084,
      "beigeord": 5085,
      "anmar": 5086,
      "aufgenommen": 5087,
      "setzt": 5088,
      "myanmar": 5089,
      "mr": 5090,
      "pap": 5091,
      "unmee": 5092,
      "thus": 5093,
      "gebuhr": 5094,
      "begrußend": 5095,
      "derzeiti": 5096,
      "fuhrer": 5097,
      "populations": 5098,
      "rural": 5099,
      "sa": 5100,
      "insp": 5101,
      "leaders": 5102,
      "geograph": 5103,
      "narco": 5104,
      "ausubung": 5105,
      "83": 5106,
      "ption": 5107,
      "unverzug": 5108,
      "jungsten": 5109,
      "wachstum": 5110,
      "physical": 5111,
      "themen": 5112,
      "einundsechzigsten": 5113,
      "assisting": 5114,
      "recognize": 5115,
      "fishing": 5116,
      "maritime": 5117,
      "narcotic": 5118,
      "schaden": 5119,
      "neben": 5120,
      "sectors": 5121,
      "elek": 5122,
      "sonstige": 5123,
      "targets": 5124,
      "kurz": 5125,
      "jurisdiction": 5126,
      "innen": 5127,
      "core": 5128,
      "anderung": 5129,
      "nachbar": 5130,
      "resource": 5131,
      "letzt": 5132,
      "tradition": 5133,
      "obstac": 5134,
      "conser": 5135,
      "einzusetzen": 5136,
      "prohibition": 5137,
      "subereinkommens": 5138,
      "perspektive": 5139,
      "fight": 5140,
      "gc": 5141,
      "gres": 5142,
      "assets": 5143,
      "preventive": 5144,
      "body": 5145,
      "identified": 5146,
      "600": 5147,
      "xis": 5148,
      "leun": 5149,
      "impl": 5150,
      "finding": 5151,
      "beschleun": 5152,
      "closely": 5153,
      "investigation": 5154,
      "ound": 5155,
      "chten": 5156,
      "isierungs": 5157,
      "verte": 5158,
      "leader": 5159,
      "distribution": 5160,
      "paid": 5161,
      "verstarkung": 5162,
      "adjust": 5163,
      "bereitschaft": 5164,
      "eingegangenen": 5165,
      "still": 5166,
      "verz": 5167,
      "uses": 5168,
      "luft": 5169,
      "bedrohungen": 5170,
      "forschung": 5171,
      "flex": 5172,
      "enabl": 5173,
      "mentioned": 5174,
      "1980": 5175,
      "kulturen": 5176,
      "science": 5177,
      "american": 5178,
      "detail": 5179,
      "bon": 5180,
      "kten": 5181,
      "mitteilung": 5182,
      "recommends": 5183,
      "praxis": 5184,
      "payment": 5185,
      "benehmen": 5186,
      "hlt": 5187,
      "extent": 5188,
      "forschungs": 5189,
      "versorgung": 5190,
      "colonial": 5191,
      "unifil": 5192,
      "befurwortet": 5193,
      "mor": 5194,
      "erfre": 5195,
      "streit": 5196,
      "zuge": 5197,
      "1982": 5198,
      "families": 5199,
      "praven": 5200,
      "safegu": 5201,
      "professional": 5202,
      "wier": 5203,
      "guaran": 5204,
      "changes": 5205,
      "bekampfen": 5206,
      "bereiche": 5207,
      "eastern": 5208,
      "condemns": 5209,
      "guarante": 5210,
      "dat": 5211,
      "konvention": 5212,
      "concerns": 5213,
      "strengthened": 5214,
      "binnenvertriebenen": 5215,
      "unh": 5216,
      "round": 5217,
      "participating": 5218,
      "erfolg": 5219,
      "embargo": 5220,
      "citi": 5221,
      "mord": 5222,
      "inal": 5223,
      "inhalt": 5224,
      "ruanda": 5225,
      "waffenruhe": 5226,
      "netz": 5227,
      "menschliche": 5228,
      "korrigendum": 5229,
      "resolve": 5230,
      "win": 5231,
      "1373": 5232,
      "anzurechnen": 5233,
      "siebenundfunfzigsten": 5234,
      "tempor": 5235,
      "ceas": 5236,
      "unterstutzungs": 5237,
      "event": 5238,
      "indik": 5239,
      "ratifiz": 5240,
      "vorbehaltlich": 5241,
      "vorgesch": 5242,
      "stellenden": 5243,
      "issued": 5244,
      "beteiligt": 5245,
      "called": 5246,
      "krise": 5247,
      "struppe": 5248,
      "ziplin": 5249,
      "angaben": 5250,
      "grave": 5251,
      "teilnahme": 5252,
      "beziehen": 5253,
      "zeitraums": 5254,
      "hunger": 5255,
      "privatsektor": 5256,
      "innovative": 5257,
      "undp": 5258,
      "genoc": 5259,
      "hunder": 5260,
      "bed": 5261,
      "verringerung": 5262,
      "platform": 5263,
      "ecow": 5264,
      "kontin": 5265,
      "disziplin": 5266,
      "articles": 5267,
      "pursue": 5268,
      "restric": 5269,
      "youth": 5270,
      "ecowas": 5271,
      "dsch": 5272,
      "beru": 5273,
      "unternimmt": 5274,
      "look": 5275,
      "ernsth": 5276,
      "informal": 5277,
      "commissions": 5278,
      "bundes": 5279,
      "unhcr": 5280,
      "sent": 5281,
      "accompl": 5282,
      "creation": 5283,
      "vertrage": 5284,
      "export": 5285,
      "rapid": 5286,
      "coherence": 5287,
      "avoid": 5288,
      "aware": 5289,
      "eu": 5290,
      "erziehung": 5291,
      "schwier": 5292,
      "tagen": 5293,
      "sicherstellen": 5294,
      "next": 5295,
      "verfugen": 5296,
      "dazugehor": 5297,
      "migrants": 5298,
      "einzurichten": 5299,
      "car": 5300,
      "leih": 5301,
      "viele": 5302,
      "foster": 5303,
      "afghanistans": 5304,
      "withdraw": 5305,
      "evaluierung": 5306,
      "genocide": 5307,
      "setzungs": 5308,
      "character": 5309,
      "kateg": 5310,
      "igte": 5311,
      "81": 5312,
      "baus": 5313,
      "unc": 5314,
      "ihn": 5315,
      "aka": 5316,
      "cn": 5317,
      "ja": 5318,
      "mang": 5319,
      "schließen": 5320,
      "237": 5321,
      "contract": 5322,
      "uberzeugt": 5323,
      "99": 5324,
      "vina": 5325,
      "entra": 5326,
      "older": 5327,
      "degra": 5328,
      "others": 5329,
      "diensten": 5330,
      "naturlichen": 5331,
      "several": 5332,
      "genfer": 5333,
      "secure": 5334,
      "tative": 5335,
      "ermutigen": 5336,
      "dauerhafte": 5337,
      "functioning": 5338,
      "leadership": 5339,
      "aktionsprogramm": 5340,
      "achtundfunfzigsten": 5341,
      "uneingeschrankt": 5342,
      "sanktionen": 5343,
      "hauf": 5344,
      "taten": 5345,
      "aries": 5346,
      "befug": 5347,
      "selben": 5348,
      "representation": 5349,
      "beratungs": 5350,
      "derartige": 5351,
      "mem": 5352,
      "herbeizu": 5353,
      "electron": 5354,
      "investitionen": 5355,
      "getroffen": 5356,
      "accomplish": 5357,
      "herbeizufuhren": 5358,
      "befassen": 5359,
      "market": 5360,
      "bosnia": 5361,
      "empower": 5362,
      "eitet": 5363,
      "vorbereitungs": 5364,
      "appell": 5365,
      "regime": 5366,
      "electronic": 5367,
      "gehend": 5368,
      "ubertrag": 5369,
      "standard": 5370,
      "does": 5371,
      "schlussel": 5372,
      "forums": 5373,
      "erwagung": 5374,
      "verschieden": 5375,
      "stocks": 5376,
      "dign": 5377,
      "hist": 5378,
      "esischen": 5379,
      "icate": 5380,
      "interests": 5381,
      "sieht": 5382,
      "tinational": 5383,
      "programmhaushalts": 5384,
      "regierungschefs": 5385,
      "multinational": 5386,
      "proposal": 5387,
      "friedlichen": 5388,
      "herzegovina": 5389,
      "regelmaßig": 5390,
      "steht": 5391,
      "punktes": 5392,
      "scope": 5393,
      "mindful": 5394,
      "ennung": 5395,
      "reached": 5396,
      "resulting": 5397,
      "conservation": 5398,
      "genau": 5399,
      "days": 5400,
      "schritt": 5401,
      "leiten": 5402,
      "stechnologien": 5403,
      "gebracht": 5404,
      "burden": 5405,
      "facilitating": 5406,
      "aufrech": 5407,
      "strafrechtspflege": 5408,
      "zugangs": 5409,
      "ernsthaf": 5410,
      "aufrechter": 5411,
      "400": 5412,
      "oze": 5413,
      "denjenigen": 5414,
      "platt": 5415,
      "perpetr": 5416,
      "dislo": 5417,
      "friedensprozess": 5418,
      "242": 5419,
      "kulturelle": 5420,
      "verteid": 5421,
      "sil": 5422,
      "verhalt": 5423,
      "komple": 5424,
      "bosnien": 5425,
      "brutto": 5426,
      "ceasef": 5427,
      "optional": 5428,
      "pose": 5429,
      "welth": 5430,
      "cont": 5431,
      "versorgungsbasis": 5432,
      "erkennen": 5433,
      "summits": 5434,
      "lasting": 5435,
      "stock": 5436,
      "91": 5437,
      "ane": 5438,
      "orts": 5439,
      "elected": 5440,
      "plor": 5441,
      "serve": 5442,
      "recommended": 5443,
      "netto": 5444,
      "erschein": 5445,
      "bret": 5446,
      "mandated": 5447,
      "woods": 5448,
      "periodic": 5449,
      "limited": 5450,
      "tasks": 5451,
      "bretton": 5452,
      "revis": 5453,
      "bio": 5454,
      "range": 5455,
      "fuhrt": 5456,
      "zeitpunkt": 5457,
      "voller": 5458,
      "helfen": 5459,
      "jedes": 5460,
      "ethiop": 5461,
      "stimmen": 5462,
      "intensify": 5463,
      "remo": 5464,
      "tenth": 5465,
      "operativen": 5466,
      "zwar": 5467,
      "completion": 5468,
      "diskrimin": 5469,
      "conclusion": 5470,
      "ceasefire": 5471,
      "rek": 5472,
      "emerg": 5473,
      "vereinigten": 5474,
      "subregion": 5475,
      "1978": 5476,
      "entscheidung": 5477,
      "ausstehenden": 5478,
      "selbstbestimmung": 5479,
      "maȣnahmen": 5480,
      "erfreut": 5481,
      "fang": 5482,
      "ified": 5483,
      "tierten": 5484,
      "latin": 5485,
      "locked": 5486,
      "yl": 5487,
      "elabor": 5488,
      "zus": 5489,
      "sicherung": 5490,
      "systemati": 5491,
      "haz": 5492,
      "seminar": 5493,
      "sing": 5494,
      "eindringlich": 5495,
      "maßgeblichen": 5496,
      "2200": 5497,
      "parli": 5498,
      "mines": 5499,
      "kommissar": 5500,
      "golan": 5501,
      "patr": 5502,
      "welthandels": 5503,
      "parliament": 5504,
      "onization": 5505,
      "eler": 5506,
      "mak": 5507,
      "therein": 5508,
      "landlocked": 5509,
      "zusammenhangende": 5510,
      "prosecution": 5511,
      "wurdigt": 5512,
      "84": 5513,
      "ituation": 5514,
      "monaten": 5515,
      "somali": 5516,
      "migr": 5517,
      "dokuments": 5518,
      "strafgerichtshof": 5519,
      "pected": 5520,
      "nachteil": 5521,
      "gegenseiti": 5522,
      "beseitigen": 5523,
      "angehorigen": 5524,
      "massen": 5525,
      "bound": 5526,
      "iately": 5527,
      "immediately": 5528,
      "federal": 5529,
      ".-": 5530,
      "olonization": 5531,
      "wet": 5532,
      "decolonization": 5533,
      "nachzukommen": 5534,
      "indung": 5535,
      "rechtlichen": 5536,
      "afghanischen": 5537,
      "volunte": 5538,
      "athiop": 5539,
      "beforder": 5540,
      "bisher": 5541,
      "umfassen": 5542,
      "beschaftigung": 5543,
      "95": 5544,
      "duty": 5545,
      "ausbau": 5546,
      "stated": 5547,
      "heim": 5548,
      "setzungen": 5549,
      "violation": 5550,
      "gerechtigkeit": 5551,
      "weder": 5552,
      "fassten": 5553,
      "verbundenen": 5554,
      "endgultige": 5555,
      "atomic": 5556,
      "candid": 5557,
      "pts": 5558,
      "erst": 5559,
      "iehlt": 5560,
      "empfiehlt": 5561,
      "veroffentlichung": 5562,
      "iß": 5563,
      "unmis": 5564,
      "formal": 5565,
      "short": 5566,
      "acced": 5567,
      "seerechtsubereinkommens": 5568,
      "gar": 5569,
      "ught": 5570,
      "membership": 5571,
      "approaches": 5572,
      "ethiopia": 5573,
      "bung": 5574,
      "pel": 5575,
      "internationales": 5576,
      "expected": 5577,
      "participants": 5578,
      "jeden": 5579,
      "kernwaffenstaaten": 5580,
      "deeply": 5581,
      "entkolonial": 5582,
      "weltkonferenz": 5583,
      "risi": 5584,
      "geeigneten": 5585,
      "europaischen": 5586,
      "vorgeschlagen": 5587,
      "tage": 5588,
      "beitrit": 5589,
      "gewahl": 5590,
      "young": 5591,
      "streitigkeiten": 5592,
      "begangen": 5593,
      "highest": 5594,
      "determined": 5595,
      "unverzuglich": 5596,
      "tan": 5597,
      "reih": 5598,
      "descr": 5599,
      "whole": 5600,
      "vertretung": 5601,
      "bestandteil": 5602,
      "reducing": 5603,
      "fail": 5604,
      "lament": 5605,
      "pression": 5606,
      "kommissionen": 5607,
      "wise": 5608,
      "gesamte": 5609,
      "expert": 5610,
      "seitens": 5611,
      "covenant": 5612,
      "later": 5613,
      "rome": 5614,
      "unterbreit": 5615,
      "committees": 5616,
      "vielen": 5617,
      "betrifft": 5618,
      "unerlasslich": 5619,
      "rasche": 5620,
      "opportunity": 5621,
      "teams": 5622,
      "claim": 5623,
      "dige": 5624,
      "parlament": 5625,
      "tativ": 5626,
      "strategischen": 5627,
      "documentation": 5628,
      "geboten": 5629,
      "700": 5630,
      "bs": 5631,
      "separ": 5632,
      "finance": 5633,
      "manif": 5634,
      "societies": 5635,
      "leading": 5636,
      "consultative": 5637,
      "plattform": 5638,
      "athiopien": 5639,
      "bra": 5640,
      "vital": 5641,
      "register": 5642,
      "sucht": 5643,
      "zwangs": 5644,
      "thirty": 5645,
      "nothilfe": 5646,
      "92": 5647,
      "cul": 5648,
      "gast": 5649,
      "ww": 5650,
      "disput": 5651,
      "arbeitet": 5652,
      "included": 5653,
      "vorbereitung": 5654,
      "spateren": 5655,
      "krankheiten": 5656,
      "welthandelsorganisation": 5657,
      "ubernehmen": 5658,
      "beschr": 5659,
      "puts": 5660,
      "departments": 5661,
      "qualitat": 5662,
      "kapazitatsaufbau": 5663,
      "ffer": 5664,
      "inkraft": 5665,
      "suppl": 5666,
      "enger": 5667,
      "prasenz": 5668,
      "veransch": 5669,
      "temporary": 5670,
      "besit": 5671,
      "130": 5672,
      "demobilization": 5673,
      "stah": 5674,
      "vertretern": 5675,
      "ausreichende": 5676,
      "extended": 5677,
      "verwaltungsmacht": 5678,
      "unterzeichnung": 5679,
      "tatsach": 5680,
      "elektron": 5681,
      "rekru": 5682,
      "inkrafttreten": 5683,
      "ei": 5684,
      "schwere": 5685,
      "wahrnehmen": 5686,
      "involving": 5687,
      "growing": 5688,
      "bekraftigend": 5689,
      "reported": 5690,
      "roh": 5691,
      "biologische": 5692,
      "ften": 5693,
      "bezeich": 5694,
      "ussi": 5695,
      "stattfinden": 5696,
      "verme": 5697,
      "aufforderung": 5698,
      "ague": 5699,
      "eingel": 5700,
      "hatte": 5701,
      "arabischen": 5702,
      "truppenstellenden": 5703,
      "anschlage": 5704,
      "dignity": 5705,
      "arten": 5706,
      "provides": 5707,
      "road": 5708,
      "reichend": 5709,
      "advance": 5710,
      "requires": 5711,
      "tierung": 5712,
      "sondern": 5713,
      "volkermord": 5714,
      "ratification": 5715,
      "erfullt": 5716,
      "mexic": 5717,
      "subsidi": 5718,
      "mitig": 5719,
      "illed": 5720,
      "acceler": 5721,
      "beteiligen": 5722,
      "eigent": 5723,
      "tolerance": 5724,
      "entkolonialisierung": 5725,
      "arbit": 5726,
      "collective": 5727,
      "erweiter": 5728,
      "below": 5729,
      "sei": 5730,
      "ranken": 5731,
      "palastinaf": 5732,
      "vorgesehenen": 5733,
      "prufer": 5734,
      "dazugehorigen": 5735,
      "stagung": 5736,
      "losen": 5737,
      "große": 5738,
      "acknowledging": 5739,
      "konsens": 5740,
      "zy": 5741,
      "erganz": 5742,
      "bekenntnis": 5743,
      "belief": 5744,
      "ausfuhr": 5745,
      "105": 5746,
      "ohchr": 5747,
      "ological": 5748,
      "zweiundsechzigsten": 5749,
      "productive": 5750,
      "directly": 5751,
      "bevolkerungsgruppen": 5752,
      "iter": 5753,
      "exclu": 5754,
      "hauptverantwortung": 5755,
      "fortschritten": 5756,
      "disch": 5757,
      "gestat": 5758,
      "palastinensische": 5759,
      "uberzeugung": 5760,
      "ocean": 5761,
      "legitim": 5762,
      "dischar": 5763,
      "capabilities": 5764,
      "periode": 5765,
      "conducted": 5766,
      "powers": 5767,
      "complex": 5768,
      "rechenschaftspflicht": 5769,
      "iable": 5770,
      "bey": 5771,
      "157": 5772,
      "finanzmittel": 5773,
      "afrikanische": 5774,
      "strafe": 5775,
      "ehemaligen": 5776,
      "verwend": 5777,
      "demon": 5778,
      "liegt": 5779,
      "sensibil": 5780,
      "ffahr": 5781,
      "value": 5782,
      "chamber": 5783,
      "verteilung": 5784,
      "iges": 5785,
      "ahrung": 5786,
      "oci": 5787,
      "hebt": 5788,
      "discriminatory": 5789,
      "sachverstand": 5790,
      "mitarbeiter": 5791,
      "obstacles": 5792,
      "manifest": 5793,
      "bul": 5794,
      "zip": 5795,
      "incor": 5796,
      "relation": 5797,
      "bissau": 5798,
      "gerecht": 5799,
      "ubereinkunften": 5800,
      "unmittelbar": 5801,
      "geographical": 5802,
      "implications": 5803,
      "beyond": 5804,
      "abgel": 5805,
      "instrumente": 5806,
      "zerstor": 5807,
      "trial": 5808,
      "handeln": 5809,
      "wiederhol": 5810,
      "tieren": 5811,
      "toleranz": 5812,
      "vorhandenen": 5813,
      "unabhangigen": 5814,
      "verhaltens": 5815,
      "zun": 5816,
      "schließt": 5817,
      "minu": 5818,
      "aktionsplans": 5819,
      "fluchtlingen": 5820,
      "untersuchen": 5821,
      "indicators": 5822,
      "unsere": 5823,
      "discussions": 5824,
      "constitutional": 5825,
      "unoci": 5826,
      "schuld": 5827,
      "leistungs": 5828,
      "vierten": 5829,
      "faktor": 5830,
      "subsidiary": 5831,
      "cop": 5832,
      "ivor": 5833,
      "tuber": 5834,
      "beide": 5835,
      "weltweite": 5836,
      "1989": 5837,
      "western": 5838,
      "caused": 5839,
      "spielen": 5840,
      "verzo": 5841,
      "minustah": 5842,
      "wand": 5843,
      "dex": 5844,
      "interdep": 5845,
      "finanzierungs": 5846,
      "uz": 5847,
      "discussion": 5848,
      "ursachen": 5849,
      "miteinander": 5850,
      "target": 5851,
      "competent": 5852,
      "kund": 5853,
      "anfall": 5854,
      "ubersetzung": 5855,
      "strict": 5856,
      "gestar": 5857,
      "thern": 5858,
      "tische": 5859,
      "anlagen": 5860,
      "anspr": 5861,
      "zeigt": 5862,
      "hochst": 5863,
      "fischen": 5864,
      "hy": 5865,
      "mals": 5866,
      "zukunft": 5867,
      "advice": 5868,
      "weltweit": 5869,
      "lined": 5870,
      "verhuten": 5871,
      "rift": 5872,
      "sexueller": 5873,
      "tes": 5874,
      "tation": 5875,
      "updated": 5876,
      "association": 5877,
      "sechsundfunfzigsten": 5878,
      "incorpor": 5879,
      "erhalt": 5880,
      "geander": 5881,
      "convening": 5882,
      "ausreichenden": 5883,
      "deser": 5884,
      "werde": 5885,
      "menschenrechtsverletzungen": 5886,
      "anspruch": 5887,
      "nd": 5888,
      "senior": 5889,
      "dreiundsechzigsten": 5890,
      "festigung": 5891,
      "genehm": 5892,
      "disputes": 5893,
      "mexico": 5894,
      "ever": 5895,
      "mindest": 5896,
      "rahmens": 5897,
      "zivilbevolkerung": 5898,
      "items": 5899,
      "mobilisierung": 5900,
      "transformations": 5901,
      "ituationen": 5902,
      "endet": 5903,
      "geschaffen": 5904,
      "tz": 5905,
      "amis": 5906,
      "hindernisse": 5907,
      "structures": 5908,
      "billigt": 5909,
      "undvierzigsten": 5910,
      "angriffe": 5911,
      "210": 5912,
      "orient": 5913,
      "election": 5914,
      "dokumente": 5915,
      "uberwachen": 5916,
      "direktor": 5917,
      "granting": 5918,
      "geschaftsordnung": 5919,
      "800": 5920,
      "cu": 5921,
      "atze": 5922,
      "ibil": 5923,
      "markt": 5924,
      "risiko": 5925,
      "anzugehen": 5926,
      "whose": 5927,
      "strager": 5928,
      "advancement": 5929,
      "assign": 5930,
      "minor": 5931,
      "entscheidungs": 5932,
      "pointed": 5933,
      "emerging": 5934,
      "repatr": 5935,
      "ame": 5936,
      "dist": 5937,
      "tax": 5938,
      "artikels": 5939,
      "flug": 5940,
      "mutually": 5941,
      "competen": 5942,
      "rechnungsprufer": 5943,
      "endorsed": 5944,
      "mary": 5945,
      "steig": 5946,
      "integrierten": 5947,
      "vements": 5948,
      "wal": 5949,
      "onger": 5950,
      "options": 5951,
      "drigen": 5952,
      "institut": 5953,
      "designed": 5954,
      "enabling": 5955,
      "aut": 5956,
      "zuwirken": 5957,
      "industrial": 5958,
      "auditors": 5959,
      "unamsil": 5960,
      "beobachtermission": 5961,
      "federation": 5962,
      "erin": 5963,
      "kunftige": 5964,
      "libanon": 5965,
      "pag": 5966,
      "often": 5967,
      "course": 5968,
      "medium": 5969,
      "verantwortlichen": 5970,
      "bestande": 5971,
      "amtssprachen": 5972,
      "sexuellen": 5973,
      "diplomati": 5974,
      "essier": 5975,
      "simil": 5976,
      "interessier": 5977,
      "supports": 5978,
      "events": 5979,
      "ergie": 5980,
      "underlining": 5981,
      "geschlechtsspezif": 5982,
      "suffer": 5983,
      "sensi": 5984,
      "fortgesetz": 5985,
      "latest": 5986,
      "chemical": 5987,
      "grundlegenden": 5988,
      "derzeitigen": 5989,
      "aufrechterhaltung": 5990,
      "ham": 5991,
      "lik": 5992,
      "einberuf": 5993,
      "zuletzt": 5994,
      "rest": 5995,
      "maßigen": 5996,
      "folgemaß": 5997,
      "tierte": 5998,
      "bedienstete": 5999,
      "amerikanischen": 6000,
      "ibed": 6001,
      "rary": 6002,
      "wing": 6003,
      "fri": 6004,
      "vorgelegten": 6005,
      "otherwise": 6006,
      "link": 6007,
      "266": 6008,
      "richten": 6009,
      "imped": 6010,
      "osttimor": 6011,
      "eigenen": 6012,
      "alternative": 6013,
      "bor": 6014,
      "glaub": 6015,
      "adver": 6016,
      "dro": 6017,
      "preser": 6018,
      "latein": 6019,
      "sofort": 6020,
      "islands": 6021,
      "ierter": 6022,
      "durchfuhren": 6023,
      "systematic": 6024,
      "feh": 6025,
      "partnern": 6026,
      "though": 6027,
      "1325": 6028,
      "demokratische": 6029,
      "dienstleistungen": 6030,
      "militarischen": 6031,
      "reib": 6032,
      "1514": 6033,
      "munition": 6034,
      "lands": 6035,
      "language": 6036,
      "beginn": 6037,
      "sport": 6038,
      "deten": 6039,
      "fern": 6040,
      "regulation": 6041,
      "pension": 6042,
      "estimates": 6043,
      "gil": 6044,
      "know": 6045,
      "unge": 6046,
      "arising": 6047,
      "punkte": 6048,
      "vertreten": 6049,
      "gesellschaften": 6050,
      "ratifikation": 6051,
      "dad": 6052,
      "might": 6053,
      "onnen": 6054,
      "reformen": 6055,
      "genf": 6056,
      "abteilungen": 6057,
      "interess": 6058,
      "luchtling": 6059,
      "aktiven": 6060,
      "summary": 6061,
      "university": 6062,
      "gefahren": 6063,
      "zentralafrikanischen": 6064,
      "hebung": 6065,
      "examine": 6066,
      "gehoren": 6067,
      "diplomatic": 6068,
      "candidates": 6069,
      "palastinafluchtling": 6070,
      "rom": 6071,
      "commer": 6072,
      "spates": 6073,
      "brindis": 6074,
      "idential": 6075,
      "ageing": 6076,
      "coordinate": 6077,
      "anzuwenden": 6078,
      "aufzubauen": 6079,
      "eingesetzt": 6080,
      "reihe": 6081,
      "brindisi": 6082,
      "900": 6083,
      "idem": 6084,
      "izations": 6085,
      "friedenssicherung": 6086,
      "interested": 6087,
      "similar": 6088,
      "spatestens": 6089,
      "beend": 6090,
      "supply": 6091,
      "outside": 6092,
      "possibility": 6093,
      "sechsten": 6094,
      "friedenssicherungseinsatzen": 6095,
      "currently": 6096,
      "formulierung": 6097,
      "256": 6098,
      "dann": 6099,
      "render": 6100,
      "atomen": 6101,
      "inspek": 6102,
      "weltbank": 6103,
      "prozesse": 6104,
      "entsprechen": 6105,
      "zentrale": 6106,
      "aktualis": 6107,
      "folgemaßnahmen": 6108,
      "atomenergie": 6109,
      "coast": 6110,
      "besuch": 6111,
      "fluss": 6112,
      "socio": 6113,
      "gestellten": 6114,
      "veranlagten": 6115,
      "angesichts": 6116,
      "abgelauf": 6117,
      "(“": 6118,
      "vn": 6119,
      "statuts": 6120,
      "gebr": 6121,
      "boden": 6122,
      "finanzperiode": 6123,
      "grenzuberschreitende": 6124,
      "histor": 6125,
      "revised": 6126,
      "beendigung": 6127,
      "construc": 6128,
      "funktion": 6129,
      "twel": 6130,
      "refra": 6131,
      "endung": 6132,
      "moglicher": 6133,
      "dreiß": 6134,
      "apportionment": 6135,
      "ool": 6136,
      "wina": 6137,
      "unzu": 6138,
      "ectively": 6139,
      "impun": 6140,
      "auseinander": 6141,
      "vorgehen": 6142,
      "maintaining": 6143,
      "herzegowina": 6144,
      "observance": 6145,
      "vertrauensbilden": 6146,
      "pazifik": 6147,
      "impunity": 6148,
      "freie": 6149,
      "transmit": 6150,
      "applications": 6151,
      "components": 6152,
      "migrant": 6153,
      "old": 6154,
      "school": 6155,
      "ausschusse": 6156,
      "dienen": 6157,
      "bringt": 6158,
      "krisen": 6159,
      "diseases": 6160,
      "usten": 6161,
      "terungen": 6162,
      "wehr": 6163,
      "trotz": 6164,
      "wiesen": 6165,
      "ias": 6166,
      "wish": 6167,
      "coordinator": 6168,
      "guidance": 6169,
      "fulfilment": 6170,
      "grenzen": 6171,
      "236": 6172,
      "measure": 6173,
      "epidem": 6174,
      "bestimmte": 6175,
      "arbeitsprogramm": 6176,
      "beratung": 6177,
      "auszustatten": 6178,
      "unami": 6179,
      "koharenz": 6180,
      "hilfswerks": 6181,
      "test": 6182,
      "verlu": 6183,
      "beschrank": 6184,
      "organizational": 6185,
      "aktionsplattform": 6186,
      "erzielen": 6187,
      "betreuung": 6188,
      "erinnern": 6189,
      "dern": 6190,
      "belie": 6191,
      "desp": 6192,
      "vulnerability": 6193,
      "verbindung": 6194,
      "indikatoren": 6195,
      "verweist": 6196,
      "sim": 6197,
      "comments": 6198,
      "konstr": 6199,
      "gewal": 6200,
      "beziehung": 6201,
      "prin": 6202,
      "seg": 6203,
      "supported": 6204,
      "296": 6205,
      "observers": 6206,
      "schweren": 6207,
      "paign": 6208,
      "campaign": 6209,
      "ehemalige": 6210,
      "fakul": 6211,
      "kategorien": 6212,
      "programmhaushaltsplans": 6213,
      "rau": 6214,
      "impar": 6215,
      "agungen": 6216,
      "ausweit": 6217,
      "auspic": 6218,
      "deckung": 6219,
      "viden": 6220,
      "vollstandigen": 6221,
      "anschau": 6222,
      "ausgewogenen": 6223,
      "fakultativ": 6224,
      "rio": 6225,
      "ury": 6226,
      "urspr": 6227,
      "race": 6228,
      "effek": 6229,
      "1981": 6230,
      "subregionaler": 6231,
      "begehung": 6232,
      "expediti": 6233,
      "auspices": 6234,
      "erreicht": 6235,
      "code": 6236,
      "nahm": 6237,
      "gemacht": 6238,
      "ruand": 6239,
      "grunde": 6240,
      "konstruk": 6241,
      "fal": 6242,
      "kein": 6243,
      "pak": 6244,
      "wusten": 6245,
      "verank": 6246,
      "bekannt": 6247,
      "pflichten": 6248,
      "remaining": 6249,
      "sofor": 6250,
      "lying": 6251,
      "ziels": 6252,
      "bestimmten": 6253,
      "coordinating": 6254,
      "zentrums": 6255,
      "challenge": 6256,
      "lieferung": 6257,
      "punishment": 6258,
      "rid": 6259,
      "annahme": 6260,
      "organisierte": 6261,
      "steuer": 6262,
      "machte": 6263,
      "wohn": 6264,
      "konfliktpravention": 6265,
      "bewilligt": 6266,
      "sahara": 6267,
      "russi": 6268,
      "prach": 6269,
      "restor": 6270,
      "tivity": 6271,
      "undertaking": 6272,
      "expend": 6273,
      "abrustungskonferenz": 6274,
      "restrictions": 6275,
      "discharge": 6276,
      "interpre": 6277,
      "ubertragen": 6278,
      "außerhalb": 6279,
      "civilizations": 6280,
      "bemerk": 6281,
      "investigations": 6282,
      "gebrauch": 6283,
      "despite": 6284,
      "urch": 6285,
      "teenth": 6286,
      "schwach": 6287,
      "trends": 6288,
      "spir": 6289,
      "affirms": 6290,
      "risks": 6291,
      "berucksichtigt": 6292,
      "chief": 6293,
      "forced": 6294,
      "gemeinwesen": 6295,
      "taining": 6296,
      "damage": 6297,
      "erheblich": 6298,
      "karibischen": 6299,
      "inspection": 6300,
      "ausweitung": 6301,
      "87": 6302,
      "wit": 6303,
      "beam": 6304,
      "devo": 6305,
      "death": 6306,
      "1963": 6307,
      "ernennung": 6308,
      "what": 6309,
      "menschenrechten": 6310,
      "jahrlichen": 6311,
      "gleichs": 6312,
      "territorialen": 6313,
      "acceptable": 6314,
      "diversif": 6315,
      "unterrichtet": 6316,
      "expendit": 6317,
      "erwer": 6318,
      "sides": 6319,
      "barer": 6320,
      "straftaten": 6321,
      "richtungen": 6322,
      "wissenschaftlichen": 6323,
      "diamonds": 6324,
      "maximum": 6325,
      "bemerkungen": 6326,
      "bewahr": 6327,
      "dsel": 6328,
      "ministers": 6329,
      "entrichten": 6330,
      "sustainability": 6331,
      "besetzung": 6332,
      "feindsel": 6333,
      "03": 6334,
      "dict": 6335,
      "eviden": 6336,
      "armen": 6337,
      "vergangenen": 6338,
      "mean": 6339,
      "bodi": 6340,
      "verpflichten": 6341,
      "signing": 6342,
      "stitution": 6343,
      "consolidation": 6344,
      "cambodi": 6345,
      "gilt": 6346,
      "chancen": 6347,
      "sozio": 6348,
      "bestimmter": 6349,
      "besseren": 6350,
      "iraqi": 6351,
      "bezogenen": 6352,
      "spirit": 6353,
      "employ": 6354,
      "israelischen": 6355,
      "voraussetzungen": 6356,
      "palastinafluchtlinge": 6357,
      "russian": 6358,
      "she": 6359,
      "urban": 6360,
      "berater": 6361,
      "benen": 6362,
      "ansatze": 6363,
      "integrate": 6364,
      "refrain": 6365,
      "gap": 6366,
      "angew": 6367,
      "because": 6368,
      "pled": 6369,
      "paras": 6370,
      "heav": 6371,
      "engage": 6372,
      "richtlinien": 6373,
      "kraften": 6374,
      "iebene": 6375,
      "deliver": 6376,
      "bewegungsfreiheit": 6377,
      "andro": 6378,
      "urs": 6379,
      "belast": 6380,
      "ubergreif": 6381,
      "century": 6382,
      "scheme": 6383,
      "appelliert": 6384,
      "even": 6385,
      "hinter": 6386,
      "besten": 6387,
      "prejudic": 6388,
      "emphasis": 6389,
      "approval": 6390,
      "angemessenen": 6391,
      "jerusalems": 6392,
      "ergriffenen": 6393,
      "stoffe": 6394,
      "onen": 6395,
      "entspricht": 6396,
      "korea": 6397,
      "ereig": 6398,
      "visit": 6399,
      "norms": 6400,
      "cust": 6401,
      "86": 6402,
      "ermittlung": 6403,
      "autor": 6404,
      "ume": 6405,
      "politischer": 6406,
      "233": 6407,
      "tended": 6408,
      "ermachtigung": 6409,
      "veranlagung": 6410,
      "hundert": 6411,
      "empowerment": 6412,
      "82": 6413,
      "aufge": 6414,
      "noted": 6415,
      "festgelegt": 6416,
      "grem": 6417,
      "1988": 6418,
      "strukturen": 6419,
      "soziookonom": 6420,
      "erte": 6421,
      "umgesetzt": 6422,
      "aufklar": 6423,
      "sound": 6424,
      "show": 6425,
      "geld": 6426,
      "entsendung": 6427,
      "engaged": 6428,
      "tiefen": 6429,
      "mangel": 6430,
      "rund": 6431,
      "vac": 6432,
      "vess": 6433,
      "tert": 6434,
      "halts": 6435,
      "dritt": 6436,
      "mindes": 6437,
      "presented": 6438,
      "conventional": 6439,
      "charak": 6440,
      "stellungen": 6441,
      "mainstreaming": 6442,
      "abgelaufene": 6443,
      "ination": 6444,
      "beschließen": 6445,
      "marg": 6446,
      "initial": 6447,
      "eingegangen": 6448,
      "kommunikations": 6449,
      "gestarkt": 6450,
      "annehm": 6451,
      "repras": 6452,
      "schirm": 6453,
      "besatz": 6454,
      "signat": 6455,
      "berichterstattung": 6456,
      "foundation": 6457,
      "syrian": 6458,
      "flows": 6459,
      "erinnernd": 6460,
      "02": 6461,
      "tatigen": 6462,
      "verantwortlichkeiten": 6463,
      "observations": 6464,
      "kommunikationstechnologien": 6465,
      "perpetrators": 6466,
      "218": 6467,
      "fa": 6468,
      "erstellung": 6469,
      "trading": 6470,
      "wichtigsten": 6471,
      "hoheitsgebiets": 6472,
      "convene": 6473,
      "substantial": 6474,
      "traditional": 6475,
      "massenvernicht": 6476,
      "120": 6477,
      "unv": 6478,
      "deter": 6479,
      "ungswaffen": 6480,
      "prompt": 6481,
      "rought": 6482,
      "sonderhaushalt": 6483,
      "integrierte": 6484,
      "verursach": 6485,
      "konkreten": 6486,
      "played": 6487,
      "supplies": 6488,
      "verwendung": 6489,
      "manifestations": 6490,
      "androhung": 6491,
      "massenvernichtungswaffen": 6492,
      "favour": 6493,
      "ops": 6494,
      "lungs": 6495,
      "weltanschau": 6496,
      "straflosigkeit": 6497,
      "einzuhalten": 6498,
      "fahigen": 6499,
      "constitutes": 6500,
      "delegation": 6501,
      "disziplinar": 6502,
      "zusagen": 6503,
      "brought": 6504,
      "hem": 6505,
      "verfassung": 6506,
      "etze": 6507,
      "unterstreichend": 6508,
      "managements": 6509,
      "bedarfs": 6510,
      "uneingeschrank": 6511,
      "prejudice": 6512,
      "ba": 6513,
      "writ": 6514,
      "1955": 6515,
      "auszubauen": 6516,
      "tiefst": 6517,
      "verfugbaren": 6518,
      "wto": 6519,
      "andt": 6520,
      "appointed": 6521,
      "expen": 6522,
      "systemen": 6523,
      "bodsch": 6524,
      "activity": 6525,
      "referend": 6526,
      "kambodsch": 6527,
      "acknowledges": 6528,
      "reflect": 6529,
      "mik": 6530,
      "pon": 6531,
      "abu": 6532,
      "notif": 6533,
      "nachsten": 6534,
      "243": 6535,
      "recognition": 6536,
      "einzelstaatlicher": 6537,
      "quartet": 6538,
      "großere": 6539,
      "anhaltenden": 6540,
      "neighbouring": 6541,
      "fand": 6542,
      "kop": 6543,
      "thaben": 6544,
      "asyl": 6545,
      "genu": 6546,
      "maur": 6547,
      "frist": 6548,
      "guten": 6549,
      "guthaben": 6550,
      "owner": 6551,
      "gleichen": 6552,
      "offiziellen": 6553,
      "defence": 6554,
      "around": 6555,
      "verleih": 6556,
      "officers": 6557,
      "factors": 6558,
      "necessity": 6559,
      "wichtiger": 6560,
      "mehrere": 6561,
      "hochran": 6562,
      "example": 6563,
      "surve": 6564,
      "skill": 6565,
      "kontinu": 6566,
      "wustenbildung": 6567,
      "cle": 6568,
      "stoffen": 6569,
      "unterlassen": 6570,
      "tigte": 6571,
      "kampag": 6572,
      "behandelt": 6573,
      "eingerichtet": 6574,
      "bonn": 6575,
      "memor": 6576,
      "desertification": 6577,
      "litem": 6578,
      "tad": 6579,
      "ilateral": 6580,
      "allgemein": 6581,
      "heben": 6582,
      "subcommittee": 6583,
      "ließung": 6584,
      "outlined": 6585,
      "einschlieȣ": 6586,
      "illegalen": 6587,
      "nup": 6588,
      "anpass": 6589,
      "took": 6590,
      "geziel": 6591,
      "izierung": 6592,
      "gesprach": 6593,
      "fuhrenden": 6594,
      "stens": 6595,
      "zeigen": 6596,
      "discuss": 6597,
      "bieten": 6598,
      "impartial": 6599,
      "112": 6600,
      "kriter": 6601,
      "near": 6602,
      "klag": 6603,
      "managers": 6604,
      "danach": 6605,
      "entwaffnung": 6606,
      "schirmherrschaft": 6607,
      "tiges": 6608,
      "quo": 6609,
      "tivitat": 6610,
      "festlegung": 6611,
      "wirtschaftlicher": 6612,
      "annexes": 6613,
      "schlussels": 6614,
      "carrying": 6615,
      "administered": 6616,
      "autoritat": 6617,
      "dop": 6618,
      "eco": 6619,
      "itself": 6620,
      "konto": 6621,
      "folgt": 6622,
      "ablauf": 6623,
      "containing": 6624,
      "cruc": 6625,
      "eingehen": 6626,
      "madrid": 6627,
      "interessentra": 6628,
      "gelegen": 6629,
      "gepruf": 6630,
      "absen": 6631,
      "rechtsstellung": 6632,
      "guam": 6633,
      "gewahrleistet": 6634,
      "mobilisieren": 6635,
      "netzwer": 6636,
      "schrift": 6637,
      "landwirtschafts": 6638,
      "beschlusses": 6639,
      "haft": 6640,
      "tools": 6641,
      "geleistet": 6642,
      "dislozierung": 6643,
      "won": 6644,
      "verzeich": 6645,
      "worldwide": 6646,
      "jedem": 6647,
      "hoheitsgebiete": 6648,
      "beitragsschlussels": 6649,
      "bestehende": 6650,
      "komplex": 6651,
      "ned": 6652,
      "achtet": 6653,
      "humanity": 6654,
      "positions": 6655,
      "einzelpersonen": 6656,
      "defined": 6657,
      "hing": 6658,
      "jour": 6659,
      "sr": 6660,
      "spar": 6661,
      "zed": 6662,
      "shared": 6663,
      "dadurch": 6664,
      "jap": 6665,
      "ergeben": 6666,
      "tisch": 6667,
      "reise": 6668,
      "einstellung": 6669,
      "wee": 6670,
      "fugt": 6671,
      "technik": 6672,
      "geschehen": 6673,
      "lives": 6674,
      "proceedings": 6675,
      "crucial": 6676,
      "94": 6677,
      "sug": 6678,
      "akteur": 6679,
      "maße": 6680,
      "freund": 6681,
      "vollinhalt": 6682,
      "bessere": 6683,
      "jeweilige": 6684,
      "entwurfs": 6685,
      "extreme": 6686,
      "zeugen": 6687,
      "vermeiden": 6688,
      "mess": 6689,
      "atal": 6690,
      "durable": 6691,
      "durchgefuhrten": 6692,
      "predict": 6693,
      "menschlichen": 6694,
      "landwirtschaftsorganisation": 6695,
      "andlungen": 6696,
      "submission": 6697,
      "uberprufungs": 6698,
      "vollzugs": 6699,
      "verhaltnis": 6700,
      "einsetzung": 6701,
      "zustimmung": 6702,
      "prostitution": 6703,
      "aged": 6704,
      "ierenden": 6705,
      "typ": 6706,
      "warning": 6707,
      "brief": 6708,
      "anerkennt": 6709,
      "identifying": 6710,
      "preparations": 6711,
      "execution": 6712,
      "permit": 6713,
      "inclusion": 6714,
      "subprogramme": 6715,
      "1986": 6716,
      "confirm": 6717,
      "ermachtigt": 6718,
      "hilfswerk": 6719,
      "journ": 6720,
      "mic": 6721,
      "ps": 6722,
      "deem": 6723,
      "ließlich": 6724,
      "responding": 6725,
      "xxviii": 6726,
      "religions": 6727,
      "erste": 6728,
      "begangenen": 6729,
      "globaler": 6730,
      "250": 6731,
      "determining": 6732,
      "zusatzlichen": 6733,
      "schwerpunkt": 6734,
      "feindseligkeiten": 6735,
      "skills": 6736,
      "proportion": 6737,
      "antiminen": 6738,
      "receive": 6739,
      "prosecut": 6740,
      "commercial": 6741,
      "ique": 6742,
      "igungs": 6743,
      "itius": 6744,
      "hostil": 6745,
      "technischer": 6746,
      "160": 6747,
      "determine": 6748,
      "eradicate": 6749,
      "bilateralen": 6750,
      "mauritius": 6751,
      "214": 6752,
      "ivers": 6753,
      "russ": 6754,
      "isen": 6755,
      "einiger": 6756,
      "lichem": 6757,
      "andern": 6758,
      "iens": 6759,
      "handlungs": 6760,
      "projekt": 6761,
      "verkehrs": 6762,
      "described": 6763,
      "tially": 6764,
      "ford": 6765,
      "congress": 6766,
      "ucken": 6767,
      "gesetze": 6768,
      "model": 6769,
      "aktive": 6770,
      "materiel": 6771,
      "debate": 6772,
      "demobilisierung": 6773,
      "vernichtung": 6774,
      "wonach": 6775,
      "dre": 6776,
      "sti": 6777,
      "erfordert": 6778,
      "chte": 6779,
      "resident": 6780,
      "ausrust": 6781,
      "maßig": 6782,
      "starke": 6783,
      "fassungs": 6784,
      "linie": 6785,
      "ebenfalls": 6786,
      "safeguards": 6787,
      "winden": 6788,
      "kolle": 6789,
      "genuss": 6790,
      "getan": 6791,
      "nationals": 6792,
      "manuf": 6793,
      "weltgipfel": 6794,
      "militarische": 6795,
      "openha": 6796,
      "encouraged": 6797,
      "libanons": 6798,
      "extension": 6799,
      "besitz": 6800,
      "manufact": 6801,
      "categ": 6802,
      "unmil": 6803,
      "entf": 6804,
      "aufbaus": 6805,
      "iga": 6806,
      "beschloss": 6807,
      "tragt": 6808,
      "continuation": 6809,
      "270": 6810,
      "occupying": 6811,
      "dynam": 6812,
      "minderheiten": 6813,
      "kriterien": 6814,
      "eg": 6815,
      "fs": 6816,
      "konzentr": 6817,
      "kets": 6818,
      "zwol": 6819,
      "useful": 6820,
      "verwirklichen": 6821,
      "deliber": 6822,
      "lokaler": 6823,
      "islamic": 6824,
      "iaea": 6825,
      "solidarity": 6826,
      "wiederholt": 6827,
      "foder": 6828,
      "unless": 6829,
      "although": 6830,
      "dete": 6831,
      "gebunden": 6832,
      "senkung": 6833,
      "finanziert": 6834,
      "reason": 6835,
      "338": 6836,
      "occupation": 6837,
      "paktes": 6838,
      "85": 6839,
      "mac": 6840,
      "sym": 6841,
      "teilnehmen": 6842,
      "beschlossen": 6843,
      "mittler": 6844,
      "accountable": 6845,
      "offences": 6846,
      "creating": 6847,
      "explore": 6848,
      "gebilligt": 6849,
      "detailed": 6850,
      "risiken": 6851,
      "demonstr": 6852,
      "kollek": 6853,
      "inhuman": 6854,
      "altet": 6855,
      "zutiefst": 6856,
      "amen": 6857,
      "konfron": 6858,
      "ufen": 6859,
      "modalities": 6860,
      "findings": 6861,
      "beitritt": 6862,
      "competence": 6863,
      "zens": 6864,
      "landlichen": 6865,
      "agree": 6866,
      "cypr": 6867,
      "begruȣ": 6868,
      "identification": 6869,
      "fischereibewirtschaftung": 6870,
      "seitig": 6871,
      "travel": 6872,
      "zusammenarbeiten": 6873,
      "1874": 6874,
      "haushaltsvor": 6875,
      "dauern": 6876,
      "investigate": 6877,
      "koloniale": 6878,
      "durchfuhrungsplan": 6879,
      "langfristige": 6880,
      "hier": 6881,
      "einbeziehung": 6882,
      "setting": 6883,
      "mitting": 6884,
      "integral": 6885,
      "medical": 6886,
      "majority": 6887,
      "agricultural": 6888,
      "monetary": 6889,
      "cambodia": 6890,
      "akteuren": 6891,
      "keinen": 6892,
      "rd": 6893,
      "internen": 6894,
      "bestre": 6895,
      "182": 6896,
      "umfassender": 6897,
      "reflected": 6898,
      "asst": 6899,
      "bear": 6900,
      "seen": 6901,
      "diffic": 6902,
      "outputs": 6903,
      "soldaten": 6904,
      "gerichteten": 6905,
      "wesentlichen": 6906,
      "liberal": 6907,
      "gehende": 6908,
      "solutions": 6909,
      "ibility": 6910,
      "mindestens": 6911,
      "difficul": 6912,
      "enc": 6913,
      "schw": 6914,
      "meisten": 6915,
      "occur": 6916,
      "faktoren": 6917,
      "vermittlung": 6918,
      "igenda": 6919,
      "heiß": 6920,
      "teilhabe": 6921,
      "mannern": 6922,
      "burs": 6923,
      "abzuhalten": 6924,
      "vessels": 6925,
      "einschlieȣlich": 6926,
      "fische": 6927,
      "gaz": 6928,
      "andem": 6929,
      "asian": 6930,
      "uberw": 6931,
      "bestimmungs": 6932,
      "wirtschaftswachstum": 6933,
      "1987": 6934,
      "technological": 6935,
      "regularly": 6936,
      "zusammenhangender": 6937,
      "tics": 6938,
      "institutionelle": 6939,
      "finanzmitteln": 6940,
      "losungen": 6941,
      "koordinieren": 6942,
      "displacement": 6943,
      "focused": 6944,
      "consolidated": 6945,
      "213": 6946,
      "cru": 6947,
      "down": 6948,
      "mel": 6949,
      "ice": 6950,
      "idation": 6951,
      "lagerung": 6952,
      "mobilize": 6953,
      "diesbezuglich": 6954,
      "verification": 6955,
      "stockpil": 6956,
      "hostilities": 6957,
      "dol": 6958,
      "lus": 6959,
      "ose": 6960,
      "oko": 6961,
      "seas": 6962,
      "gou": 6963,
      "includes": 6964,
      "weniger": 6965,
      "method": 6966,
      "diesbezugliche": 6967,
      "siedlungen": 6968,
      "mung": 6969,
      "attain": 6970,
      "asp": 6971,
      "menschenhandels": 6972,
      "friedensprozesses": 6973,
      "unep": 6974,
      "prozessen": 6975,
      "lebenden": 6976,
      "verbessert": 6977,
      "increasingly": 6978,
      "verfassungs": 6979,
      "vorteile": 6980,
      "titel": 6981,
      "nichtdiskrimin": 6982,
      "thereof": 6983,
      "vertreib": 6984,
      "qualif": 6985,
      "opfern": 6986,
      "coherent": 6987,
      "ya": 6988,
      "erb": 6989,
      "construction": 6990,
      "104": 6991,
      "starkere": 6992,
      "hauptabteilungen": 6993,
      "tagesordnungs": 6994,
      "entire": 6995,
      "focal": 6996,
      "nukle": 6997,
      "gleichstellungs": 6998,
      "covered": 6999,
      "verknup": 7000,
      "meinungs": 7001,
      "tourism": 7002,
      "reaktion": 7003,
      "friend": 7004,
      "zial": 7005,
      "injur": 7006,
      "nationality": 7007,
      "reiche": 7008,
      "sudafrika": 7009,
      "cannot": 7010,
      "placed": 7011,
      "contributed": 7012,
      "nord": 7013,
      "algi": 7014,
      "umstanden": 7015,
      "ador": 7016,
      "vorlage": 7017,
      "arbeitnehmer": 7018,
      "regionalzentrum": 7019,
      "entwicklungsprogramm": 7020,
      "represented": 7021,
      "products": 7022,
      "verringern": 7023,
      "marginal": 7024,
      "nukleare": 7025,
      "117": 7026,
      "calling": 7027,
      "pandem": 7028,
      "zicht": 7029,
      "anzahl": 7030,
      "werten": 7031,
      "bruss": 7032,
      "koordinierte": 7033,
      "invite": 7034,
      "einzelstaatliche": 7035,
      "stabilization": 7036,
      "enhancement": 7037,
      "unverzicht": 7038,
      "oceans": 7039,
      "minimize": 7040,
      "expenses": 7041,
      "foderation": 7042,
      "infolge": 7043,
      "infek": 7044,
      "ances": 7045,
      "sively": 7046,
      "ubermitteln": 7047,
      "umfassend": 7048,
      "dokumenten": 7049,
      "seminars": 7050,
      "erschließung": 7051,
      "urgently": 7052,
      "fluchtlingskommissars": 7053,
      "streitkrafte": 7054,
      "criter": 7055,
      "atemal": 7056,
      "schn": 7057,
      "annivers": 7058,
      "guatemal": 7059,
      "gegenstande": 7060,
      "kunfts": 7061,
      "nachdrucklichen": 7062,
      "nato": 7063,
      "equalization": 7064,
      "konsolidier": 7065,
      "beeintrachtigen": 7066,
      "gremien": 7067,
      "japan": 7068,
      "erwachsen": 7069,
      "izes": 7070,
      "kooperations": 7071,
      "dreiundzwanzigsten": 7072,
      "ubergangsregierung": 7073,
      "resulted": 7074,
      "inselentwicklungslander": 7075,
      "seerechtsubereinkommen": 7076,
      "reinfor": 7077,
      "values": 7078,
      "composition": 7079,
      "ubersetzungs": 7080,
      "regionalkommissionen": 7081,
      "titu": 7082,
      "highly": 7083,
      "reforms": 7084,
      "guided": 7085,
      "designated": 7086,
      "zahlungen": 7087,
      "religiosen": 7088,
      "cc": 7089,
      "super": 7090,
      "incident": 7091,
      "commending": 7092,
      "geschop": 7093,
      "wirtschaftsgemeinschaft": 7094,
      "untersuchungen": 7095,
      "fahigkeiten": 7096,
      "appeal": 7097,
      "elemente": 7098,
      "affecting": 7099,
      "gegenwartigen": 7100,
      "abuja": 7101,
      "journal": 7102,
      "heißt": 7103,
      "ym": 7104,
      "ering": 7105,
      "chang": 7106,
      "across": 7107,
      "interinstitutionellen": 7108,
      "appen": 7109,
      "1540": 7110,
      "sozialer": 7111,
      "aida": 7112,
      "menschheit": 7113,
      "reduzierung": 7114,
      "unilateral": 7115,
      "antic": 7116,
      "nete": 7117,
      "samt": 7118,
      "pensions": 7119,
      "positiven": 7120,
      "lessons": 7121,
      "verbindungen": 7122,
      "konzept": 7123,
      "anerkannt": 7124,
      "citizens": 7125,
      "degrading": 7126,
      "referendum": 7127,
      "cruel": 7128,
      "yp": 7129,
      "bestra": 7130,
      "friedensubereinkommens": 7131,
      "doch": 7132,
      "liberias": 7133,
      "acceptance": 7134,
      "armutsbekampfung": 7135,
      "widmen": 7136,
      "ised": 7137,
      "ernie": 7138,
      "approves": 7139,
      "thematic": 7140,
      "launched": 7141,
      "schwierigkeiten": 7142,
      "iar": 7143,
      "qaida": 7144,
      "iner": 7145,
      "ieds": 7146,
      "grunden": 7147,
      "wahrungs": 7148,
      "sudans": 7149,
      "significantly": 7150,
      "either": 7151,
      "constructive": 7152,
      "breiter": 7153,
      "face": 7154,
      "bevor": 7155,
      "ausstattung": 7156,
      "noby": 7157,
      "sicheren": 7158,
      "motiv": 7159,
      "freely": 7160,
      "zeiten": 7161,
      "representing": 7162,
      "beitragt": 7163,
      "bewerten": 7164,
      "traffic": 7165,
      "iaeo": 7166,
      "minorities": 7167,
      "prinzip": 7168,
      "anniversary": 7169,
      "nobyl": 7170,
      "eroff": 7171,
      "almat": 7172,
      "ungleich": 7173,
      "volkern": 7174,
      "carrier": 7175,
      "modern": 7176,
      "ordnungsgemaß": 7177,
      "modalitaten": 7178,
      "sugges": 7179,
      "konfrontiert": 7180,
      "erniedrigen": 7181,
      "almaty": 7182,
      "reag": 7183,
      "zuzu": 7184,
      "vorgenommen": 7185,
      "illing": 7186,
      "1521": 7187,
      "brid": 7188,
      "ebenso": 7189,
      "ergebnissen": 7190,
      "mobilization": 7191,
      "istische": 7192,
      "beitragsruck": 7193,
      "weltraums": 7194,
      "revital": 7195,
      "lebanese": 7196,
      "beginning": 7197,
      "psycho": 7198,
      "looks": 7199,
      "andten": 7200,
      "versetzen": 7201,
      "einver": 7202,
      "lare": 7203,
      "komite": 7204,
      "syner": 7205,
      "thereby": 7206,
      "geleitet": 7207,
      "contracts": 7208,
      "principal": 7209,
      "uben": 7210,
      "unom": 7211,
      "oliti": 7212,
      "einfuhrung": 7213,
      "graus": 7214,
      "worksh": 7215,
      "mittels": 7216,
      "italy": 7217,
      "definition": 7218,
      "bezogene": 7219,
      "ratifiziert": 7220,
      "oriented": 7221,
      "longer": 7222,
      "erlassen": 7223,
      "bele": 7224,
      "leiden": 7225,
      "accep": 7226,
      "akze": 7227,
      "beschwerde": 7228,
      "sicherheitssektors": 7229,
      "mittelt": 7230,
      "vertragsorgane": 7231,
      "higher": 7232,
      "facility": 7233,
      "transfers": 7234,
      "vorbereitungen": 7235,
      "gerechte": 7236,
      "lib": 7237,
      "envo": 7238,
      "befrei": 7239,
      "adher": 7240,
      "considers": 7241,
      "owing": 7242,
      "jahrlich": 7243,
      "expan": 7244,
      "availability": 7245,
      "verfolg": 7246,
      "kuwa": 7247,
      "zustandigkeit": 7248,
      "utilization": 7249,
      "legitimate": 7250,
      "ownership": 7251,
      "ale": 7252,
      "gende": 7253,
      "utzung": 7254,
      "verble": 7255,
      "compan": 7256,
      "differen": 7257,
      "verbrechensbekampfung": 7258,
      "zerstorung": 7259,
      "erstattung": 7260,
      "intended": 7261,
      "vermer": 7262,
      "ausgeschop": 7263,
      "vorher": 7264,
      "beschlussen": 7265,
      "selbstbestimmungs": 7266,
      "voraussetzung": 7267,
      "psych": 7268,
      "devoted": 7269,
      "unomig": 7270,
      "erarbeiten": 7271,
      "veranderungen": 7272,
      "much": 7273,
      "sexuelle": 7274,
      "unterzeichnet": 7275,
      "industrie": 7276,
      "immunities": 7277,
      "benotigt": 7278,
      "ozeane": 7279,
      "expansion": 7280,
      "indones": 7281,
      "herzustellen": 7282,
      "teils": 7283,
      "141": 7284,
      "227": 7285,
      "hebend": 7286,
      "protecting": 7287,
      "hervorhebend": 7288,
      "regierungsfuhrung": 7289,
      "fruhwar": 7290,
      "amendment": 7291,
      "vacan": 7292,
      "ausgleichs": 7293,
      "nachkommen": 7294,
      "spann": 7295,
      "betreffen": 7296,
      "kernwaffenfreien": 7297,
      "volkerrechtskommission": 7298,
      "geografischen": 7299,
      "wunsch": 7300,
      "beigeordnet": 7301,
      "interpretation": 7302,
      "evidence": 7303,
      "criteria": 7304,
      "bang": 7305,
      "npt": 7306,
      "anliegen": 7307,
      "reim": 7308,
      "constra": 7309,
      "friedenskonsolidier": 7310,
      "gutern": 7311,
      "1267": 7312,
      "reviews": 7313,
      "follows": 7314,
      "kusten": 7315,
      "edonia": 7316,
      "introduction": 7317,
      "genehmigung": 7318,
      "difficulties": 7319,
      "orated": 7320,
      "untergra": 7321,
      "frank": 7322,
      "formulation": 7323,
      "arbeitstagung": 7324,
      "stellte": 7325,
      "start": 7326,
      "applied": 7327,
      "privatsektors": 7328,
      "wachstums": 7329,
      "praventions": 7330,
      "moglicherweise": 7331,
      "hort": 7332,
      "pending": 7333,
      "ects": 7334,
      "progres": 7335,
      "zusammensetzung": 7336,
      "financed": 7337,
      "informellen": 7338,
      "gewis": 7339,
      "ologischen": 7340,
      "compens": 7341,
      "gestaltung": 7342,
      "verfugbar": 7343,
      "component": 7344,
      "coastal": 7345,
      "besatzungs": 7346,
      "3101": 7347,
      "batt": 7348,
      "dig": 7349,
      "dort": 7350,
      "nahrungs": 7351,
      "arily": 7352,
      "194": 7353,
      "tigungs": 7354,
      "fortsetzung": 7355,
      "gelten": 7356,
      "familie": 7357,
      "attem": 7358,
      "collection": 7359,
      "prison": 7360,
      "lusaka": 7361,
      "220": 7362,
      "inst": 7363,
      "antrage": 7364,
      "atl": 7365,
      "siv": 7366,
      "weiterer": 7367,
      "willkur": 7368,
      "gerichtsbarkeit": 7369,
      "umbered": 7370,
      "karibik": 7371,
      "custom": 7372,
      "doppel": 7373,
      "itur": 7374,
      "unddreiß": 7375,
      "geist": 7376,
      "depo": 7377,
      "unterpunkt": 7378,
      "kontak": 7379,
      "ival": 7380,
      "website": 7381,
      "nieder": 7382,
      "89": 7383,
      "vertragen": 7384,
      "congol": 7385,
      "herit": 7386,
      "heute": 7387,
      "ordinary": 7388,
      "invited": 7389,
      "continuous": 7390,
      "aktionsplane": 7391,
      "vertriebene": 7392,
      "bestanden": 7393,
      "targeted": 7394,
      "missbrauchs": 7395,
      "encumbered": 7396,
      "(\"": 7397,
      "geis": 7398,
      "detention": 7399,
      "ersuchte": 7400,
      "gegenstanden": 7401,
      "gegenseitig": 7402,
      "menschenrechtsnormen": 7403,
      "bezuglich": 7404,
      "vorschlagen": 7405,
      "multilaterale": 7406,
      "auszuweiten": 7407,
      "bedeuten": 7408,
      "indicated": 7409,
      "inspektions": 7410,
      "tele": 7411,
      "unregul": 7412,
      "unencumbered": 7413,
      "revision": 7414,
      "league": 7415,
      "consc": 7416,
      "elling": 7417,
      "maßige": 7418,
      "kapital": 7419,
      "poll": 7420,
      "erstellen": 7421,
      "urgen": 7422,
      "tritt": 7423,
      "sicherungs": 7424,
      "standige": 7425,
      "werdend": 7426,
      "obje": 7427,
      "ables": 7428,
      "rechtliche": 7429,
      "conducive": 7430,
      "fulfilled": 7431,
      "billion": 7432,
      "staatsangehorigkeit": 7433,
      "wesentliche": 7434,
      "credit": 7435,
      "fai": 7436,
      "“(": 7437,
      "erster": 7438,
      "align": 7439,
      "ieden": 7440,
      "ands": 7441,
      "getragen": 7442,
      "concept": 7443,
      "licht": 7444,
      "platz": 7445,
      "spoliti": 7446,
      "gewalth": 7447,
      "affirming": 7448,
      "integrieren": 7449,
      "controls": 7450,
      "ernsthaft": 7451,
      "geanderten": 7452,
      "”;": 7453,
      "urr": 7454,
      "prorated": 7455,
      "raising": 7456,
      "vorgaben": 7457,
      "operative": 7458,
      "ugg": 7459,
      "gemeinschaften": 7460,
      "factor": 7461,
      "armutsbeseitigung": 7462,
      "single": 7463,
      "openhagen": 7464,
      "eight": 7465,
      "itions": 7466,
      "liga": 7467,
      "stable": 7468,
      "house": 7469,
      "studie": 7470,
      "verletzung": 7471,
      "entscheidungen": 7472,
      "delegationen": 7473,
      "unserer": 7474,
      "statistics": 7475,
      "dealing": 7476,
      "unterbreiten": 7477,
      "ungehinder": 7478,
      "danger": 7479,
      "beist": 7480,
      "sched": 7481,
      "resto": 7482,
      "kongol": 7483,
      "lak": 7484,
      "facing": 7485,
      "berechen": 7486,
      "276": 7487,
      "banken": 7488,
      "geeigneter": 7489,
      "irakischen": 7490,
      "burgerliche": 7491,
      "withdrawal": 7492,
      "rekrutierung": 7493,
      "verankerten": 7494,
      "bewe": 7495,
      "strik": 7496,
      "wirkt": 7497,
      "170": 7498,
      "175": 7499,
      "bereitgestellt": 7500,
      "expenditures": 7501,
      "kontinuier": 7502,
      "besatzungsmacht": 7503,
      "ping": 7504,
      "aktion": 7505,
      "ubergangsverwaltung": 7506,
      "verstarkten": 7507,
      "entscheidender": 7508,
      "nachteiligen": 7509,
      "haushaltsvoranschlage": 7510,
      "tp": 7511,
      "orten": 7512,
      "entrust": 7513,
      "einseiti": 7514,
      "gezogen": 7515,
      "aufsicht": 7516,
      "laden": 7517,
      "nahost": 7518,
      "rechtzeitig": 7519,
      "betonung": 7520,
      "limit": 7521,
      "istischen": 7522,
      "verstoßen": 7523,
      "money": 7524,
      "somalias": 7525,
      "volunteers": 7526,
      "chad": 7527,
      "ardi": 7528,
      "beir": 7529,
      "ausgesetzt": 7530,
      "durfen": 7531,
      "allevi": 7532,
      "gewicht": 7533,
      "zwischenstaatliche": 7534,
      "ohlen": 7535,
      "attach": 7536,
      "amtszeit": 7537,
      "indigenen": 7538,
      "gerechten": 7539,
      "grundlegende": 7540,
      "duties": 7541,
      "accession": 7542,
      "versuchen": 7543,
      "parliamentary": 7544,
      "firm": 7545,
      "mus": 7546,
      "search": 7547,
      "cease": 7548,
      "iring": 7549,
      "192": 7550,
      "1960": 7551,
      "moun": 7552,
      "gering": 7553,
      "140": 7554,
      "prufungs": 7555,
      "empfohlen": 7556,
      "attack": 7557,
      "evaluierungs": 7558,
      "consolidate": 7559,
      "offentlichkeits": 7560,
      "haufig": 7561,
      "ausrustung": 7562,
      "//": 7563,
      "niger": 7564,
      "umgehend": 7565,
      "sular": 7566,
      "sudo": 7567,
      "nogra": 7568,
      "izin": 7569,
      "stage": 7570,
      "ikistan": 7571,
      "entwicklungskonferenz": 7572,
      "instituts": 7573,
      "pornogra": 7574,
      "italien": 7575,
      "streben": 7576,
      "stehende": 7577,
      "examination": 7578,
      "reserve": 7579,
      "____": 7580,
      "repatriation": 7581,
      "interessierten": 7582,
      "reimburs": 7583,
      "congolese": 7584,
      "oren": 7585,
      "außen": 7586,
      "ists": 7587,
      "vorsorge": 7588,
      "teilnehmer": 7589,
      "welcome": 7590,
      "gewalthandlungen": 7591,
      "lia": 7592,
      "afford": 7593,
      "links": 7594,
      "source": 7595,
      "readiness": 7596,
      "solidaritat": 7597,
      "verzogerungen": 7598,
      "charakter": 7599,
      "ausgeschopften": 7600,
      "://": 7601,
      "olym": 7602,
      "besonderer": 7603,
      "entwicklungsstrategien": 7604,
      "adopting": 7605,
      "learned": 7606,
      "beauftragte": 7607,
      "competi": 7608,
      "signature": 7609,
      "ituri": 7610,
      "bewegung": 7611,
      "nom": 7612,
      "aren": 7613,
      "eindam": 7614,
      "optim": 7615,
      "voruber": 7616,
      "akar": 7617,
      "offenen": 7618,
      "azil": 7619,
      "amtstrager": 7620,
      "improvements": 7621,
      "1979": 7622,
      "zeuge": 7623,
      "beschleunigen": 7624,
      "hund": 7625,
      "hyo": 7626,
      "reper": 7627,
      "austr": 7628,
      "abgegeben": 7629,
      "diff": 7630,
      "iro": 7631,
      "statut": 7632,
      "explor": 7633,
      "respectively": 7634,
      "festzu": 7635,
      "achievements": 7636,
      "1985": 7637,
      "bringung": 7638,
      "aktu": 7639,
      "unerlaubte": 7640,
      "industry": 7641,
      "vorsitzende": 7642,
      "zyper": 7643,
      "predictable": 7644,
      "deposit": 7645,
      "conscious": 7646,
      "hyogo": 7647,
      "”),": 7648,
      "hatten": 7649,
      "north": 7650,
      "credi": 7651,
      "verlangerung": 7652,
      "verfahrensweisen": 7653,
      "distinc": 7654,
      "witness": 7655,
      "guatemala": 7656,
      "fth": 7657,
      "genutzt": 7658,
      "abgegebenen": 7659,
      "isches": 7660,
      "vorkehr": 7661,
      "presidential": 7662,
      "accur": 7663,
      "markets": 7664,
      "advoc": 7665,
      "landesebene": 7666,
      "erhebliche": 7667,
      "syrischen": 7668,
      "islamischen": 7669,
      "suchtstoff": 7670,
      "twelfth": 7671,
      "kopie": 7672,
      "lern": 7673,
      "wests": 7674,
      "ental": 7675,
      "beweis": 7676,
      "kodex": 7677,
      "friedensabkommen": 7678,
      "gleichheit": 7679,
      "problemen": 7680,
      "veranlagen": 7681,
      "cultures": 7682,
      "anwendbaren": 7683,
      "created": 7684,
      "sale": 7685,
      "borders": 7686,
      "klimaanderungen": 7687,
      "bezeichnet": 7688,
      "aktualisierten": 7689,
      "types": 7690,
      "vorkehrungen": 7691,
      "westsah": 7692,
      "tschad": 7693,
      "akh": 7694,
      "gerung": 7695,
      "bewilligten": 7696,
      "kontrollen": 7697,
      "georgia": 7698,
      "allocation": 7699,
      "vollinhaltliche": 7700,
      "kyo": 7701,
      "ligh": 7702,
      "abgeschlossen": 7703,
      "giving": 7704,
      "map": 7705,
      "undering": 7706,
      "monate": 7707,
      "penal": 7708,
      "http": 7709,
      "payments": 7710,
      "konfliktsituationen": 7711,
      "points": 7712,
      "langfristigen": 7713,
      "heavily": 7714,
      "gemel": 7715,
      "eleventh": 7716,
      "kenntnisse": 7717,
      "finanzlage": 7718,
      "ativer": 7719,
      "gleichviel": 7720,
      "southern": 7721,
      "abzugeben": 7722,
      "troops": 7723,
      "cyprus": 7724,
      "reinforcing": 7725,
      "befinden": 7726,
      "conting": 7727,
      "besta": 7728,
      "tains": 7729,
      "ahme": 7730,
      "friedensabkommens": 7731,
      "live": 7732,
      "universitat": 7733,
      "ratifying": 7734,
      "indicator": 7735,
      "networks": 7736,
      "deutschen": 7737,
      "claims": 7738,
      "eindammung": 7739,
      "ean": 7740,
      "tater": 7741,
      "genden": 7742,
      "forest": 7743,
      "umer": 7744,
      "persist": 7745,
      "kompe": 7746,
      "gewonnen": 7747,
      "arbeitsmethoden": 7748,
      "privaten": 7749,
      "haushaltsmitteln": 7750,
      "bereichs": 7751,
      "verschul": 7752,
      "verbesserungen": 7753,
      "binden": 7754,
      "completed": 7755,
      "prime": 7756,
      "behindern": 7757,
      "experienced": 7758,
      "guarantee": 7759,
      "kommissarin": 7760,
      "ison": 7761,
      "igungen": 7762,
      "compr": 7763,
      "excep": 7764,
      "dispar": 7765,
      "zeug": 7766,
      "endeavour": 7767,
      "bestimmt": 7768,
      "beratungen": 7769,
      "vorauskopie": 7770,
      "ansatzes": 7771,
      "unterrichten": 7772,
      "registration": 7773,
      "resumed": 7774,
      "steuerausgleichs": 7775,
      "gelegenheit": 7776,
      "urgency": 7777,
      "steuerausgleichsfonds": 7778,
      "ball": 7779,
      "clar": 7780,
      "fazil": 7781,
      "jungen": 7782,
      "roc": 7783,
      "utr": 7784,
      "ermitt": 7785,
      "tiver": 7786,
      "einigung": 7787,
      "seven": 7788,
      "ichtung": 7789,
      "durchsetzung": 7790,
      "dispu": 7791,
      "underlying": 7792,
      "planungs": 7793,
      "reasons": 7794,
      "1984": 7795,
      "betrie": 7796,
      "atorium": 7797,
      "biologischen": 7798,
      "statistical": 7799,
      "benotigen": 7800,
      "begeg": 7801,
      "begrenzung": 7802,
      "statigkeiten": 7803,
      "eufor": 7804,
      "verschiedene": 7805,
      "biodiversity": 7806,
      "vorgeschlagenen": 7807,
      "ubersetzungsdienstes": 7808,
      "dispute": 7809,
      "kan": 7810,
      "zweite": 7811,
      "did": 7812,
      "times": 7813,
      "ruh": 7814,
      "release": 7815,
      "222": 7816,
      "241": 7817,
      "leistet": 7818,
      "authorizes": 7819,
      "umfasst": 7820,
      "studies": 7821,
      "verkauf": 7822,
      "segment": 7823,
      "gesprache": 7824,
      "stockpiling": 7825,
      "beistand": 7826,
      "gern": 7827,
      "guns": 7828,
      "ench": 7829,
      "indeb": 7830,
      "auȣ": 7831,
      "abmach": 7832,
      "blio": 7833,
      "offence": 7834,
      "hav": 7835,
      "nichtstaatliche": 7836,
      "book": 7837,
      "biblio": 7838,
      "anerkannten": 7839,
      "vermogenswerte": 7840,
      "zahlung": 7841,
      "friendly": 7842,
      "indebted": 7843,
      "116": 7844,
      "kandid": 7845,
      "ortlichen": 7846,
      "voranzu": 7847,
      "daraus": 7848,
      "sites": 7849,
      "selection": 7850,
      "eingerich": 7851,
      "erfolgreichen": 7852,
      "bad": 7853,
      "bindung": 7854,
      "verl": 7855,
      "zuges": 7856,
      "raise": 7857,
      "commod": 7858,
      "operating": 7859,
      "teilzunehmen": 7860,
      "nichtstaatlicher": 7861,
      "zunehmend": 7862,
      "liberation": 7863,
      "convened": 7864,
      "emergencies": 7865,
      "beschaftigungs": 7866,
      "expanded": 7867,
      "reagieren": 7868,
      "accepted": 7869,
      "sper": 7870,
      "zonen": 7871,
      "nepal": 7872,
      "wech": 7873,
      "agrees": 7874,
      "appropriation": 7875,
      "privile": 7876,
      "mediation": 7877,
      "invitation": 7878,
      "restruc": 7879,
      "schiffe": 7880,
      "accelerate": 7881,
      "offentlichkeitsarbeit": 7882,
      "tf": 7883,
      "aufstellung": 7884,
      "minderung": 7885,
      "beschranken": 7886,
      "einschrank": 7887,
      "raschen": 7888,
      "sanierungs": 7889,
      "grounds": 7890,
      "nebenorgane": 7891,
      "datab": 7892,
      "zunahme": 7893,
      "digital": 7894,
      "relative": 7895,
      "topic": 7896,
      "vorran": 7897,
      "bringing": 7898,
      "rational": 7899,
      "turk": 7900,
      "helping": 7901,
      "dupl": 7902,
      "boundary": 7903,
      "compensation": 7904,
      "objek": 7905,
      "hoff": 7906,
      "becoming": 7907,
      "leid": 7908,
      "master": 7909,
      "milliar": 7910,
      "highligh": 7911,
      "275": 7912,
      "strategische": 7913,
      "verwaltungsmachte": 7914,
      "existence": 7915,
      "bedeuts": 7916,
      "entschad": 7917,
      "defic": 7918,
      "staatsangehorigen": 7919,
      "ubertragung": 7920,
      "bibliothe": 7921,
      "wechsel": 7922,
      "iary": 7923,
      "”)": 7924,
      "leones": 7925,
      "tsunami": 7926,
      "absich": 7927,
      "trum": 7928,
      "auswahl": 7929,
      "ada": 7930,
      "nachfrage": 7931,
      "ikament": 7932,
      "ibt": 7933,
      "publications": 7934,
      "medizin": 7935,
      "ruckfuhrung": 7936,
      "materialien": 7937,
      "beguns": 7938,
      "eigene": 7939,
      "belong": 7940,
      "ausgewogene": 7941,
      "corpor": 7942,
      "tourismus": 7943,
      "gegenseitigen": 7944,
      "belebung": 7945,
      "nutr": 7946,
      "sl": 7947,
      "weiterzu": 7948,
      "wahrzunehmen": 7949,
      "liqu": 7950,
      "illegale": 7951,
      "combatants": 7952,
      "schwerwie": 7953,
      "sonderberichterstatters": 7954,
      "geschlossenen": 7955,
      "fortgesetzten": 7956,
      "abmachungen": 7957,
      "kul": 7958,
      "gefassten": 7959,
      "opa": 7960,
      "kombatt": 7961,
      "grundlagen": 7962,
      "feas": 7963,
      "sache": 7964,
      "menschenrechtssituation": 7965,
      "medikament": 7966,
      "unabding": 7967,
      "herausforderung": 7968,
      "potenziel": 7969,
      "seerecht": 7970,
      "abermals": 7971,
      "beschriebenen": 7972,
      "dd": 7973,
      "ired": 7974,
      "utet": 7975,
      "folgezeit": 7976,
      "valuable": 7977,
      "beeintrachtigt": 7978,
      "bekenntnisses": 7979,
      "westsahara": 7980,
      "begegnen": 7981,
      "derungs": 7982,
      "ics": 7983,
      "defen": 7984,
      "amb": 7985,
      "size": 7986,
      "gien": 7987,
      "laundering": 7988,
      "gegenstand": 7989,
      "verantwortungs": 7990,
      "requesting": 7991,
      "concluded": 7992,
      "cessation": 7993,
      "tiefe": 7994,
      "wanderarbeitnehmer": 7995,
      "privileges": 7996,
      "units": 7997,
      "deplor": 7998,
      "prosper": 7999,
      "ulated": 8000,
      "fertig": 8001,
      "akten": 8002,
      "klaren": 8003,
      "mehrheit": 8004,
      "einzubeziehen": 8005,
      "finanzieller": 8006,
      "breite": 8007,
      "certification": 8008,
      "destabil": 8009,
      "veranschlagen": 8010,
      "arbitrary": 8011,
      "vertrauensbildende": 8012,
      "inhaf": 8013,
      "ruf": 8014,
      "232": 8015,
      "liberian": 8016,
      "jahrestag": 8017,
      "contributors": 8018,
      "inseln": 8019,
      "erhoh": 8020,
      "preparedness": 8021,
      "kombattanten": 8022,
      "beenden": 8023,
      "begehen": 8024,
      "foren": 8025,
      "seits": 8026,
      "sobald": 8027,
      "besu": 8028,
      "ived": 8029,
      "uganda": 8030,
      "neukal": 8031,
      "gestutz": 8032,
      "justif": 8033,
      "informationszentren": 8034,
      "concluding": 8035,
      "limitation": 8036,
      "fristigen": 8037,
      "lasst": 8038,
      "terroristische": 8039,
      "erscheinungs": 8040,
      "cell": 8041,
      "ober": 8042,
      "uce": 8043,
      "erted": 8044,
      "erfordern": 8045,
      "auschen": 8046,
      "icated": 8047,
      "ull": 8048,
      "intervention": 8049,
      "decken": 8050,
      "roeconomic": 8051,
      "works": 8052,
      "fullest": 8053,
      "zahlen": 8054,
      "umfel": 8055,
      "hoheren": 8056,
      "berufen": 8057,
      "lokalen": 8058,
      "eingesetzten": 8059,
      "gleichberechtigung": 8060,
      "ursprungs": 8061,
      "uneingeschrankte": 8062,
      "uberwindung": 8063,
      "vermerkt": 8064,
      "faith": 8065,
      "ermittlungen": 8066,
      "mas": 8067,
      "nav": 8068,
      "unic": 8069,
      "ungeach": 8070,
      "beten": 8071,
      "behalten": 8072,
      "prospec": 8073,
      "exceed": 8074,
      "shar": 8075,
      "iage": 8076,
      "balan": 8077,
      "willing": 8078,
      "reviewed": 8079,
      "stabilisierung": 8080,
      "kreuz": 8081,
      "angemessener": 8082,
      "kammer": 8083,
      "zertif": 8084,
      "gutachten": 8085,
      "vorhanden": 8086,
      "interessengruppen": 8087,
      "erfolgreiche": 8088,
      "elaboration": 8089,
      "lateinamerika": 8090,
      "adherence": 8091,
      "kompeten": 8092,
      "ungeachtet": 8093,
      "along": 8094,
      "consent": 8095,
      "bestim": 8096,
      "french": 8097,
      "162": 8098,
      "declarations": 8099,
      "entwickelt": 8100,
      "1977": 8101,
      "chairperson": 8102,
      "bewaltigen": 8103,
      "geschlechterperspektive": 8104,
      "regimes": 8105,
      "amisom": 8106,
      "dp": 8107,
      "unmo": 8108,
      "oft": 8109,
      "verlauf": 8110,
      "gehort": 8111,
      "ama": 8112,
      "ernahrung": 8113,
      "189": 8114,
      "enshr": 8115,
      "responses": 8116,
      "erneuten": 8117,
      "mobilizing": 8118,
      "studien": 8119,
      "crises": 8120,
      "wurdigung": 8121,
      "widely": 8122,
      "citizen": 8123,
      "befugnisse": 8124,
      "www": 8125,
      "unicef": 8126,
      "bestimmen": 8127,
      "215": 8128,
      "cation": 8129,
      "unbesch": 8130,
      "appra": 8131,
      "herkunfts": 8132,
      "freier": 8133,
      "wirtschaften": 8134,
      "weltwirtschaft": 8135,
      "contrary": 8136,
      "monat": 8137,
      "221": 8138,
      "253": 8139,
      "jeweils": 8140,
      "directed": 8141,
      "stattfand": 8142,
      "erorterungen": 8143,
      "saving": 8144,
      "praventiv": 8145,
      "likely": 8146,
      "adverse": 8147,
      "auseinandersetzung": 8148,
      "psychotr": 8149,
      "verbleiben": 8150,
      "difficult": 8151,
      "enshrined": 8152,
      "nun": 8153,
      "nichts": 8154,
      "erenden": 8155,
      "erganzen": 8156,
      "lehr": 8157,
      "ubersch": 8158,
      "forderte": 8159,
      "mongol": 8160,
      "sold": 8161,
      "entrichtung": 8162,
      "planen": 8163,
      "straftat": 8164,
      "verfugt": 8165,
      "jane": 8166,
      "ratified": 8167,
      "bruch": 8168,
      "chemischer": 8169,
      "accessible": 8170,
      "aufgenommenen": 8171,
      "mindestmaß": 8172,
      "known": 8173,
      "angewandt": 8174,
      "macroeconomic": 8175,
      "heritage": 8176,
      "113": 8177,
      "ermitteln": 8178,
      "ories": 8179,
      "auer": 8180,
      "auffordern": 8181,
      "vorlegen": 8182,
      "maßnahme": 8183,
      "kooperation": 8184,
      "weltfrieden": 8185,
      "fortlauf": 8186,
      "adet": 8187,
      "lergehen": 8188,
      "frameworks": 8189,
      "wohlergehen": 8190,
      "sectoral": 8191,
      "reduz": 8192,
      "covering": 8193,
      "erscheint": 8194,
      "sensitive": 8195,
      "ality": 8196,
      "stations": 8197,
      "ille": 8198,
      "uted": 8199,
      "phic": 8200,
      "248": 8201,
      "faced": 8202,
      "zivilen": 8203,
      "texts": 8204,
      "praktische": 8205,
      "notwendige": 8206,
      "wettru": 8207,
      "separate": 8208,
      "envoy": 8209,
      "ule": 8210,
      "amended": 8211,
      "aggres": 8212,
      "auswirken": 8213,
      "unterlagen": 8214,
      "kompon": 8215,
      "rect": 8216,
      "empfanger": 8217,
      "verschlech": 8218,
      "experiences": 8219,
      "unabhangige": 8220,
      "accomplishments": 8221,
      "liaison": 8222,
      "fazilitat": 8223,
      "beabsich": 8224,
      "unterausschuss": 8225,
      "wealth": 8226,
      "vorzunehmen": 8227,
      "sichere": 8228,
      "maßgabe": 8229,
      "palastina": 8230,
      "hochverschul": 8231,
      "schifffahr": 8232,
      "gebilligten": 8233,
      "bundesrepublik": 8234,
      "unbeschadet": 8235,
      "nine": 8236,
      "anfang": 8237,
      "atel": 8238,
      "coerc": 8239,
      "amtliche": 8240,
      "tlatel": 8241,
      "vorlaufigen": 8242,
      "speed": 8243,
      "meeresumwelt": 8244,
      "gebietsregierung": 8245,
      "anhaltende": 8246,
      "failure": 8247,
      "transformationslander": 8248,
      "steigern": 8249,
      "inspektionsgruppe": 8250,
      "ren": 8251,
      "sorg": 8252,
      "erfolgen": 8253,
      "anno": 8254,
      "replace": 8255,
      "urge": 8256,
      "auto": 8257,
      "olco": 8258,
      "aba": 8259,
      "landwirtschaft": 8260,
      "ships": 8261,
      "verschuld": 8262,
      "adviser": 8263,
      "osis": 8264,
      "binding": 8265,
      "verbreiten": 8266,
      "datum": 8267,
      "befreiungs": 8268,
      "tlatelolco": 8269,
      "enge": 8270,
      "errichtung": 8271,
      "schatz": 8272,
      "izen": 8273,
      "ierungen": 8274,
      "vorrechte": 8275,
      "disappe": 8276,
      "bislang": 8277,
      "bleibt": 8278,
      "vertragspartei": 8279,
      "zusatzlich": 8280,
      "unterzeichneten": 8281,
      "erkenntnisse": 8282,
      "1502": 8283,
      "einberufung": 8284,
      "kandidaten": 8285,
      "):": 8286,
      "city": 8287,
      "cred": 8288,
      "hic": 8289,
      "umstande": 8290,
      "exces": 8291,
      "expression": 8292,
      "alleg": 8293,
      "roles": 8294,
      "267": 8295,
      "neubelebung": 8296,
      "jeweiliger": 8297,
      "namely": 8298,
      "disciplin": 8299,
      "debat": 8300,
      "gepruft": 8301,
      "absence": 8302,
      "prinzipien": 8303,
      "umfelds": 8304,
      "janeiro": 8305,
      "kredit": 8306,
      "nungen": 8307,
      "aumen": 8308,
      "gef": 8309,
      "siven": 8310,
      "unterliegen": 8311,
      "weiterentwicklung": 8312,
      "weitergabe": 8313,
      "disseminate": 8314,
      "front": 8315,
      "veranstaltung": 8316,
      "georgien": 8317,
      "pollution": 8318,
      "reif": 8319,
      "despre": 8320,
      "widespre": 8321,
      "plural": 8322,
      "franz": 8323,
      "decreas": 8324,
      "worin": 8325,
      "organisierten": 8326,
      "steil": 8327,
      "informationstechn": 8328,
      "kok": 8329,
      "mittelpunkt": 8330,
      "protected": 8331,
      "leistung": 8332,
      "violent": 8333,
      "artikeln": 8334,
      "verschar": 8335,
      "vierter": 8336,
      "cash": 8337,
      "konfliktfolgezeit": 8338,
      "delegations": 8339,
      "deliberations": 8340,
      "changing": 8341,
      "widespread": 8342,
      "slo": 8343,
      "stif": 8344,
      "anschluss": 8345,
      "rever": 8346,
      "assigned": 8347,
      "auftreten": 8348,
      "roati": 8349,
      "marks": 8350,
      "durchfuhrungsubereinkommens": 8351,
      "reaffirmed": 8352,
      "menschenrechtserziehung": 8353,
      "facilitation": 8354,
      "hafen": 8355,
      "eliminating": 8356,
      "abgehaltene": 8357,
      "reaching": 8358,
      "indigene": 8359,
      "beigetragen": 8360,
      "zeitige": 8361,
      "proceeds": 8362,
      "amendments": 8363,
      "meaning": 8364,
      "erarbeitung": 8365,
      "ints": 8366,
      "alen": 8367,
      "remed": 8368,
      "ifffahr": 8369,
      "107": 8370,
      "109": 8371,
      "1612": 8372,
      "handelt": 8373,
      "preced": 8374,
      "europar": 8375,
      "places": 8376,
      "erforderlichenfalls": 8377,
      "examined": 8378,
      "renewed": 8379,
      "detaill": 8380,
      "ratifizieren": 8381,
      "balanced": 8382,
      "jetz": 8383,
      "mitzuwirken": 8384,
      "matic": 8385,
      "iers": 8386,
      "steur": 8387,
      "engl": 8388,
      "158": 8389,
      "1572": 8390,
      "friedensmissionen": 8391,
      "funden": 8392,
      "gelder": 8393,
      "ratify": 8394,
      "zentralafrika": 8395,
      "funktionen": 8396,
      "culosis": 8397,
      "gestattet": 8398,
      "tuberkul": 8399,
      "tuberculosis": 8400,
      "ruandas": 8401,
      "hochrangigen": 8402,
      "interessentrager": 8403,
      "freundschaft": 8404,
      "kontakte": 8405,
      "disciplinary": 8406,
      "bure": 8407,
      "angeb": 8408,
      "seesch": 8409,
      "ikationen": 8410,
      "cession": 8411,
      "obtain": 8412,
      "milderung": 8413,
      "273": 8414,
      "turing": 8415,
      "collect": 8416,
      "abzuschließen": 8417,
      "volkswirtschaften": 8418,
      "pilot": 8419,
      "eigentums": 8420,
      "bangkok": 8421,
      "kongolesischen": 8422,
      "unmovic": 8423,
      "franzos": 8424,
      "seeschifffahr": 8425,
      "envis": 8426,
      "berg": 8427,
      "ernsten": 8428,
      "ausschließlich": 8429,
      "barbad": 8430,
      "offentlicher": 8431,
      "beizutreten": 8432,
      "subregionale": 8433,
      "verfolgt": 8434,
      "structural": 8435,
      "substances": 8436,
      "minimum": 8437,
      "festzulegen": 8438,
      "comprising": 8439,
      "auȣer": 8440,
      "barbados": 8441,
      "aver": 8442,
      "oda": 8443,
      "notification": 8444,
      "ipal": 8445,
      "betonen": 8446,
      "gerichtete": 8447,
      "mediter": 8448,
      "uhrt": 8449,
      "eigenschaft": 8450,
      "industriel": 8451,
      "stadt": 8452,
      "waffenruhevereinbarung": 8453,
      "drought": 8454,
      "milliarden": 8455,
      "neukaledon": 8456,
      "mediterran": 8457,
      "bom": 8458,
      "taus": 8459,
      "ichen": 8460,
      "sichergestellt": 8461,
      "kooper": 8462,
      "staffing": 8463,
      "verschm": 8464,
      "sanitation": 8465,
      "opening": 8466,
      "contributes": 8467,
      "speziel": 8468,
      "zwangsmaßnahmen": 8469,
      "bureau": 8470,
      "fel": 8471,
      "influ": 8472,
      "ania": 8473,
      "rela": 8474,
      "auß": 8475,
      "lei": 8476,
      "interaction": 8477,
      "ischem": 8478,
      "halte": 8479,
      "ared": 8480,
      "roten": 8481,
      "bility": 8482,
      "proclaim": 8483,
      "commensur": 8484,
      "linked": 8485,
      "equally": 8486,
      "visits": 8487,
      "bewertungen": 8488,
      "clearly": 8489,
      "deployed": 8490,
      "beforderer": 8491,
      "ivorischen": 8492,
      "ivorian": 8493,
      "autonom": 8494,
      "restoration": 8495,
      "aufklarung": 8496,
      "friedenskonsolidierungs": 8497,
      "tuberkulose": 8498,
      "mediterranean": 8499,
      "258": 8500,
      "kungs": 8501,
      "tel": 8502,
      "inqu": 8503,
      "suppor": 8504,
      "whom": 8505,
      "gewoh": 8506,
      "234": 8507,
      "budgets": 8508,
      "jected": 8509,
      "geltenden": 8510,
      "veranlassen": 8511,
      "einzugehen": 8512,
      "grundsatzes": 8513,
      "negotiation": 8514,
      "moratorium": 8515,
      "written": 8516,
      "incidents": 8517,
      "akzep": 8518,
      "commensurate": 8519,
      "gewohn": 8520,
      "114": 8521,
      "ca": 8522,
      "dation": 8523,
      "mern": 8524,
      "ua": 8525,
      "abges": 8526,
      "treiben": 8527,
      "herkunft": 8528,
      "trager": 8529,
      "barr": 8530,
      "funded": 8531,
      "learning": 8532,
      "summar": 8533,
      "1974": 8534,
      "festigen": 8535,
      "immunitaten": 8536,
      "verkund": 8537,
      "tieg": 8538,
      "honie": 8539,
      "anfalligkeit": 8540,
      "expeditiously": 8541,
      "deterior": 8542,
      "erscheinungsformen": 8543,
      "break": 8544,
      "hope": 8545,
      "vergleich": 8546,
      "lichte": 8547,
      "adap": 8548,
      "ollen": 8549,
      "format": 8550,
      "move": 8551,
      "notstands": 8552,
      "minur": 8553,
      "regards": 8554,
      "annten": 8555,
      "226": 8556,
      "jeg": 8557,
      "560": 8558,
      "vereinbart": 8559,
      "volkerrechtlichen": 8560,
      "untersuchungs": 8561,
      "terroristischen": 8562,
      "honour": 8563,
      "ubergreifenden": 8564,
      ")).": 8565,
      "icyp": 8566,
      "gerat": 8567,
      "unficyp": 8568,
      "erklaren": 8569,
      "stellungnahmen": 8570,
      "263": 8571,
      "muster": 8572,
      "erfordernissen": 8573,
      "depth": 8574,
      "wohner": 8575,
      "guiding": 8576,
      "monthly": 8577,
      "demobilisierungs": 8578,
      "grenzuberschreitenden": 8579,
      "reinforce": 8580,
      "nachbarstaaten": 8581,
      "degradation": 8582,
      "geldwas": 8583,
      "reprasent": 8584,
      "nahrungsmittel": 8585,
      "wettrustens": 8586,
      "pertaining": 8587,
      "ished": 8588,
      "111": 8589,
      "verwendet": 8590,
      "annexed": 8591,
      "haup": 8592,
      "wiederaufgenommenen": 8593,
      "threaten": 8594,
      "bitten": 8595,
      "mobility": 8596,
      "limits": 8597,
      "erfolgt": 8598,
      "bilaterale": 8599,
      "hervorge": 8600,
      "sektoren": 8601,
      "verhaltenskodex": 8602,
      "ereignisse": 8603,
      "beigeordnetem": 8604,
      "cat": 8605,
      "erer": 8606,
      "ana": 8607,
      "itts": 8608,
      "severe": 8609,
      "option": 8610,
      "commo": 8611,
      "ussis": 8612,
      "root": 8613,
      "specified": 8614,
      "considerable": 8615,
      "249": 8616,
      "vertragsstaats": 8617,
      "postkonfliktsituationen": 8618,
      "xxx": 8619,
      "menschlichkeit": 8620,
      "gebern": 8621,
      "belle": 8622,
      "regelmaßigen": 8623,
      "genehmigt": 8624,
      "beruhen": 8625,
      "beforderungs": 8626,
      "constraints": 8627,
      "sanierungsgesamt": 8628,
      "geldwasche": 8629,
      "khaz": 8630,
      "coussis": 8631,
      "ausrichtung": 8632,
      "concerted": 8633,
      "marcoussis": 8634,
      "linas": 8635,
      "seeking": 8636,
      "ology": 8637,
      "judge": 8638,
      "compact": 8639,
      "einschlagiger": 8640,
      "adequately": 8641,
      "dringenden": 8642,
      "entered": 8643,
      "akadem": 8644,
      "theme": 8645,
      "aland": 8646,
      "belar": 8647,
      "einleitung": 8648,
      "abkhaz": 8649,
      "benach": 8650,
      "disengagement": 8651,
      "zealand": 8652,
      "recip": 8653,
      "phy": 8654,
      "officer": 8655,
      "genannte": 8656,
      "zentralen": 8657,
      "altere": 8658,
      "getroffenen": 8659,
      "manufacture": 8660,
      "recipient": 8661,
      "kts": 8662,
      "“,": 8663,
      "ermoglich": 8664,
      "tox": 8665,
      "abch": 8666,
      "aufrecht": 8667,
      "compar": 8668,
      "stellten": 8669,
      "weisungen": 8670,
      "guide": 8671,
      "mittelmeer": 8672,
      "caledonia": 8673,
      "menschenrechtsfragen": 8674,
      "conclude": 8675,
      "observation": 8676,
      "alterer": 8677,
      "infec": 8678,
      "niedr": 8679,
      "zypern": 8680,
      "\")": 8681,
      "intim": 8682,
      "alition": 8683,
      "today": 8684,
      "ommun": 8685,
      "ammunition": 8686,
      "convic": 8687,
      "consum": 8688,
      "exter": 8689,
      "rowing": 8690,
      "outreach": 8691,
      "244": 8692,
      "somal": 8693,
      "arbeitsplatz": 8694,
      "specifically": 8695,
      "gebergemeinschaft": 8696,
      "potenzial": 8697,
      "enforced": 8698,
      "beigeordneten": 8699,
      "narcotics": 8700,
      "belonging": 8701,
      "gement": 8702,
      "alters": 8703,
      "befindet": 8704,
      "lose": 8705,
      "fuhrende": 8706,
      "serving": 8707,
      "wirksames": 8708,
      "jahrhundert": 8709,
      "283": 8710,
      "neues": 8711,
      "wherever": 8712,
      "broa": 8713,
      "ethnischen": 8714,
      "wiedereingliederungs": 8715,
      "spannungen": 8716,
      "progressive": 8717,
      "ri": 8718,
      "tables": 8719,
      "ches": 8720,
[...]
